{"version":"1.0","truncation":null,"padding":null,"added_tokens":[{"id":0,"special":true,"content":"<pad>","single_word":false,"lstrip":false,"rstrip":false,"normalized":false},{"id":1,"special":true,"content":"</s>","single_word":false,"lstrip":false,"rstrip":false,"normalized":false},{"id":2,"special":true,"content":"<unk>","single_word":false,"lstrip":false,"rstrip":false,"normalized":false}],"normalizer":{"type":"Sequence","normalizers":[{"type":"Nmt"},{"type":"NFKC"},{"type":"Replace","pattern":{"Regex":" {2,}"},"content":" "}]},"pre_tokenizer":{"type":"Sequence","pretokenizers":[{"type":"Metaspace","replacement":"▁","add_prefix_space":true},{"type":"Digits","individual_digits":true},{"type":"Punctuation"}]},"post_processor":{"type":"TemplateProcessing","single":[{"Sequence":{"id":"A","type_id":0}},{"SpecialToken":{"id":"</s>","type_id":0}}],"pair":[{"Sequence":{"id":"A","type_id":0}},{"Sequence":{"id":"B","type_id":1}}],"special_tokens":{"</s>":{"id":"</s>","ids":[1],"tokens":["</s>"]}}},"decoder":{"type":"Metaspace","replacement":"▁","add_prefix_space":true},"model":{"type":"Unigram","unk_id":2,"vocab":[["<pad>",0.0],["</s>",0.0],["<unk>",0.0],["▁",-2.1557978218089673],["e",-2.954489214184541],[".",-3.0255805933175033],[",",-3.5013879775761616],["n",-3.5826098991995465],["'",-3.651402607109329],["▁de",-3.735408141077816],["t",-4.222922286281811],["▁een",-4.272969124801268],["▁het",-4.285711615729586],["▁van",-4.469327838540121],["▁dat",-4.649444306270585],["▁in",-4.651582693503183],["▁op",-4.837032878041583],["▁zijn",-4.860864531924776],["▁ze",-4.874148177016728],["▁hij",-4.901597932037706],["▁niet",-4.995774823222948],["▁ik",-4.996805120702792],["▁was",-4.99755425893003],["s",-5.041136790635786],["r",-5.046698820513079],["▁haar",-5.055627922796692],["j",-5.083288629349866],["▁die",-5.191504327629602],["▁met",-5.237546674735334],["?",-5.292052924341132],["is",-5.34720561066192],["▁aan",-5.365352859759444],["▁had",-5.451186144694379],["a",-5.50084388621497],["▁om",-5.509313625038612],["▁naar",-5.534667226848448],["▁voor",-5.536518643226486],["▁maar",-5.626041006513692],["d",-5.714106239862648],["\"",-5.7225222534699505],["▁hem",-5.757308137631199],["u",-5.760553335945005],["▁Hij",-5.81828360368872],["▁uit",-5.8301862044630965],["▁als",-5.852789854356846],["▁Ze",-5.8914089517422745],["▁me",-5.926080719307958],["▁zich",-5.937913469649754],["▁De",-5.944559818966027],["▁zo",-5.954383926638627],["▁Ik",-5.985985337575478],["▁nog",-6.0110428822649595],["▁zei",-6.04285753637415],["▁over",-6.045168429201926],["i",-6.057510887527876],["▁mijn",-6.092538160923461],["▁door",-6.141226318290329],["▁zou",-6.146857033563336],["▁wat",-6.150188805251631],["▁dan",-6.184660611691971],["▁Het",-6.220015960038388],["o",-6.230184580566821],["-",-6.234505494760729],["▁bij",-6.2347693635201935],["▁ook",-6.28027044360025],["▁of",-6.351337758825256],["Ik",-6.357899510078953],["!",-6.430230152416625],["▁we",-6.438146077664777],["▁wel",-6.444884882222906],["▁al",-6.451416736690087],["▁geen",-6.485822907792725],[":",-6.516940981329856],["▁heb",-6.629108409546005],["▁af",-6.638053164035641],["l",-6.664660390554767],["▁heeft",-6.672159888410921],["▁hebben",-6.673325312694628],["▁meer",-6.6744568983105435],["▁weer",-6.6765441345659156],["▁waren",-6.697992777058648],["▁toen",-6.700999393380693],["▁kon",-6.709958251804707],["y",-6.737484093503657],["▁waar",-6.7575157574241],["k",-6.789666406251026],["▁tot",-6.792053431091137],["▁En",-6.813458013828903],["▁tegen",-6.8213347290729],["▁hun",-6.857753385135956],["▁Maar",-6.868603764151873],["▁iets",-6.89177045448252],["▁daar",-6.940034234182219],["▁weg",-6.976391268608134],["▁kan",-6.977956773430108],["▁werd",-6.994319622900685],["▁kunnen",-7.004490579572213],["m",-7.015104582436299],["▁hier",-7.01850087303078],["▁goed",-7.023971348947306],["▁toe",-7.025582691911776],["▁ben",-7.052924397967502],["▁keek",-7.053617970697742],["▁mij",-7.053833438075365],["▁gaan",-7.067921285566435],["▁dit",-7.105101285832429],["▁man",-7.129756165657204],["▁alleen",-7.140518057505345],["▁vroeg",-7.145046187968731],["▁doen",-7.148503935541498],["▁moet",-7.149022661519069],["▁andere",-7.149108535014044],["▁ging",-7.16147510363977],["▁terug",-7.167707240753529],["g",-7.177236746166175],["▁onder",-7.181830354095959],["▁hoe",-7.188281062676806],["▁weet",-7.19386650717005],["▁ogen",-7.196176512418514],["▁ons",-7.207120920242209],["▁worden",-7.208942501056624],["▁ver",-7.212359529791826],["▁zij",-7.217492451675698],["▁even",-7.218754643661491],["▁toch",-7.226448317523481],["▁wilde",-7.235804097183722],["h",-7.237935175599832],["▁Een",-7.245523496843319],["▁be",-7.247630314010031],["▁kwam",-7.257584705331039],["▁veel",-7.2656281853042834],["▁ge",-7.266235356579701],["▁zag",-7.268369366822464],["▁zal",-7.269468636938662],["▁zien",-7.27038595061531],["E",-7.27044213109429],["▁In",-7.275938042430258],["▁tijd",-7.277088372923604],["▁deze",-7.277473412377166],["▁moest",-7.284698663524209],["▁hadden",-7.289206135063033],["1",-7.292355651057534],["▁hand",-7.294542748254875],[";",-7.306112906442511],["▁hoofd",-7.313087575330592],["▁Dat",-7.316277322410279],["_",-7.328751842616393],["▁twee",-7.332822611519086],["▁achter",-7.339473035718516],["▁mee",-7.370610828503509],["▁stond",-7.375714128411385],["Dat",-7.377743751360162],["▁niets",-7.383542697867119],["▁he",-7.391933568293199],["▁nooit",-7.395079883932661],["▁heel",-7.413780378576769],["▁Toen",-7.415189195649031],["▁wist",-7.418012373821876],["▁geweest",-7.419393974634071],["▁wil",-7.420175467270203],["J",-7.439443718643965],["▁komen",-7.46142468491562],["▁Als",-7.463563448136009],["▁elkaar",-7.477087992004732],["▁Er",-7.478336510481928],["▁terwijl",-7.490443997720185],["O",-7.494325419166886],["▁binnen",-7.494416849589559],["–",-7.501080842131627],["▁leven",-7.505397266455548],["▁eens",-7.511486988069995],["▁moeten",-7.523385051634252],["▁alles",-7.524612823540375],["p",-7.534459447894417],["Het",-7.558234718505613],["▁gezicht",-7.559598135544324],["▁altijd",-7.570629800215466],["▁maken",-7.572133066640992],["▁vrouw",-7.574820940538744],["▁mensen",-7.575931347751968],["▁jij",-7.584044235852248],["▁huis",-7.586381255381093],["▁paar",-7.587549117574349],["z",-7.597099253685164],["▁laten",-7.609088005852282],["▁alle",-7.63472805398408],["▁dacht",-7.636960275866505],["Wat",-7.639352736376809],["▁zeggen",-7.654007849198388],["▁Je",-7.655529268564889],["▁deed",-7.661463538782938],["▁keer",-7.6684424183662045],["Z",-7.671864009382304],["▁liep",-7.688640532276795],["Ja",-7.6923997235667425],["▁omdat",-7.693976249914035],["D",-7.697995084210108],["▁We",-7.710773046959011],["dat",-7.710944378636865],["▁heen",-7.724563898375134],["▁hebt",-7.744660433275536],["0",-7.745120401313553],["▁staan",-7.745874923966841],["▁grote",-7.747477342580741],["▁zitten",-7.749213083380436],["▁echt",-7.751266946321568],["▁alsof",-7.756766304936303],["▁moeder",-7.75908783313038],["▁steeds",-7.764564569100811],["▁iemand",-7.767381380940931],["al",-7.770248245582543],["▁vader",-7.777402491026967],["▁voelde",-7.782821951367595],["▁dag",-7.78485431298655],["▁open",-7.786261538256673],["▁zonder",-7.793909060578505],["▁lang",-7.797221821882596],["▁weten",-7.802298097617198],["▁Zijn",-7.804415738206986],["▁zat",-7.81394492400613],["▁deur",-7.814592977184802],["▁Op",-7.8289398215539165],["▁gaat",-7.831513263201309],["▁bent",-7.83419442258227],["▁anders",-7.836521496948897],["I",-7.844670570380099],["▁liet",-7.846747868623771],["▁Daar",-7.848432562724822],["▁wordt",-7.849108274536512],["▁verder",-7.855006983052414],["▁vast",-7.857123560053939],["▁hele",-7.860718364706875],["f",-7.863490857516954],["▁zeker",-7.876554825485934],["▁jaar",-7.877111149943765],["▁zelf",-7.878371729138227],["▁eerste",-7.880798600465662],["▁tussen",-7.884284048765723],["2",-7.893819730141155],["▁misschien",-7.901367337379701],["▁dus",-7.906290294293514],["▁handen",-7.908106431434598],["▁zouden",-7.929815446424728],["▁helemaal",-7.93529132032562],["▁want",-7.937404465318657],["▁eigen",-7.942970349773269],["▁begon",-7.9487493764416115],["▁maakte",-7.948894006269455],["kijken",-7.951863125159333],["▁zegt",-7.959495517344699],["▁bijna",-7.961665810493674],["▁onze",-7.967640483551611],["W",-7.969347636391154],["Nee",-7.972072701884164],["▁zoals",-7.976632155464056],["▁dood",-7.983622034450683],["9",-7.985113770628086],["▁blik",-7.986311385682418],["b",-7.989912196940232],["▁boven",-7.994481257911557],["▁moment",-7.9999436296729005],["▁zelfs",-8.004778568641942],["▁hield",-8.004934418141847],["▁Met",-8.011285686915448],["▁leek",-8.015619667097301],["▁allemaal",-8.02204294810528],["▁Wat",-8.023320467290414],["▁jullie",-8.026584108901412],["▁wie",-8.027311836287321],["heid",-8.038295836407627],["Maar",-8.044398310770331],["uur",-8.046189670178054],["c",-8.04733399176539],["▁snel",-8.047472280132439],["▁stem",-8.049440534042773],["▁Haar",-8.053370047442858],["▁Zo",-8.06007288348201],["▁één",-8.065668318614106],["▁staat",-8.078747700656466],["▁plaats",-8.0811144711614],["▁komt",-8.084762504940727],["▁gaf",-8.093474704782949],["▁buiten",-8.096730572045267],["▁bleef",-8.100661791834886],["v",-8.103921669084649],["▁nodig",-8.109804458573825],["▁beter",-8.114939694166196],["▁laatste",-8.127066892130092],["▁genoeg",-8.128646191397268],["▁gezien",-8.136581678944657],["▁gedaan",-8.139552357010249],[")",-8.140127656291911],["▁kleine",-8.141210488127488],["▁drie",-8.142911947011983],["▁nam",-8.146471203818907],["▁jou",-8.148801331481645],["▁werk",-8.15068785903334],["(",-8.159908313352776],["▁verteld",-8.161414118989502],["▁houden",-8.161871266005575],["▁Die",-8.165786517748554],["▁trok",-8.16668832639314],["▁laat",-8.169143558130768],["▁rond",-8.169545292805427],["▁langs",-8.17013916705806],["gezegd",-8.177753360730025],["▁bed",-8.183835147341757],["▁gewoon",-8.192309836800348],["▁willen",-8.193446780299281],["▁later",-8.194334667860673],["▁kamer",-8.19533610598811],["erg",-8.196348631214187],["▁mannen",-8.19795978736024],["▁vol",-8.198004496813049],["▁licht",-8.201974031870105],["▁S",-8.20281513262313],["▁enige",-8.212600628406996],["▁vond",-8.216247998004226],["▁Hoe",-8.221084892304004],["▁lag",-8.22434618763259],["▁hoorde",-8.22591357780119],["uw",-8.227115197787377],["▁water",-8.228155366191224],["▁beetje",-8.22852485043407],["A",-8.23296260952878],["▁samen",-8.236849851339018],["▁wij",-8.238093992680946],["▁denk",-8.238146480680596],["▁blijven",-8.241993731059997],["▁auto",-8.24410410380384],["▁zichzelf",-8.246197457383468],["ing",-8.247720987494793],["krijgen",-8.250306528101161],["▁ga",-8.2535158757334],["▁oude",-8.254243525660414],["▁naast",-8.258345790349358],["▁Van",-8.262652108051903],["▁manier",-8.26907621803752],["▁ont",-8.277324112250634],["U",-8.278128738026515],["▁werden",-8.28736231355842],["▁denken",-8.295645585313899],["▁dicht",-8.295940646247121],["brengen",-8.302002080298285],["▁mond",-8.306466815784795],["wel",-8.31619173825787],["w",-8.319135167177764],["▁vinden",-8.320940051013647],["▁geven",-8.329316362310674],["▁kinderen",-8.331867665185232],["▁neer",-8.33343190826521],["haalde",-8.341523570039275],["▁nieuwe",-8.34751338232015],["3",-8.348726076265942],["▁nemen",-8.351440779544566],["dingen",-8.358637607047049],["▁eerst",-8.363937311668835],["▁Na",-8.371664449119015],["▁vragen",-8.375319827705734],["▁wereld",-8.380897238945456],["▁waarom",-8.381161328407764],["▁groot",-8.38982101173479],["▁probeerde",-8.395469011773123],["▁Voor",-8.397018692419568],["genomen",-8.403737437242837],["▁zit",-8.407825123674852],["▁natuurlijk",-8.411229331407057],["5",-8.411375705130608],["4",-8.42011051302903],["▁woorden",-8.422302849061321],["Hij",-8.42470998434291],["gehad",-8.425163292108069],["▁zullen",-8.428168480176913],["▁gevoel",-8.428928316735252],["▁mogelijk",-8.430315112289097],["▁kunt",-8.43818711939347],["▁B",-8.438588593492069],["Hoe",-8.442122212244454],["H",-8.442945855317197],["▁hart",-8.443711474100969],["▁draaide",-8.444696339664207],["praten",-8.450248169121245],["▁kind",-8.45579406068968],["Als",-8.459573051533265],["op",-8.462544303411851],["▁vertellen",-8.46257548832492],["knikte",-8.462656319637004],["▁los",-8.46754159876225],["▁Nu",-8.470269443598125],["▁duidelijk",-8.472179043609906],["▁grond",-8.474744409976337],["tje",-8.476601861481907],["halen",-8.47904370965388],["▁kreeg",-8.479348517094838],["▁geval",-8.481239354608622],["▁ooit",-8.4823852523432],["▁lichaam",-8.482523177718406],["▁naam",-8.483828648089585],["legde",-8.485310403352399],["▁Mijn",-8.492175109444455],["▁gebeurd",-8.492633247740475],["▁ander",-8.492930550406351],["▁niemand",-8.493787330577396],["▁horen",-8.495955382988859],["om",-8.496811124350671],["▁geld",-8.498901881992362],["▁dagen",-8.50332786336783],["8",-8.506828119610105],["▁Dan",-8.510216962365384],["▁meisje",-8.516791371892062],["▁kant",-8.518586172906142],["▁vraag",-8.52000652912884],["▁meteen",-8.52891565391763],["kwamen",-8.533210287942117],["▁zette",-8.533542279715336],["▁thuis",-8.533834804125362],["▁viel",-8.552284638115555],["▁riep",-8.556446123325491],["man",-8.560331522021226],["▁geleden",-8.576519067754216],["▁armen",-8.577908935962283],["▁idee",-8.578182083744682],["▁antwoordde",-8.584098307449572],["▁eigenlijk",-8.58423173491905],["▁lucht",-8.58635268653958],["gegaan",-8.586427675280788],["▁konden",-8.591786412333093],["▁soort",-8.592481270409303],["▁gekomen",-8.594298029680832],["▁gemaakt",-8.599944402668259],["▁wanneer",-8.601330699676529],["▁doet",-8.601550431001563],["▁wachten",-8.61017069405656],["▁ervan",-8.610639023390023],["▁arm",-8.611250792089278],["T",-8.612255007279794],["▁graag",-8.612966942715584],["▁Misschien",-8.614229930975768],["▁pas",-8.620133990765174],["us",-8.623317533191495],["6",-8.623989088951895],["▁Dit",-8.627355001453314],["7",-8.635155411298486],["▁Al",-8.636614823242647],["▁avond",-8.640949834488948],["▁eten",-8.643727330104754],["voordat",-8.646357841968008],["▁bang",-8.647778621168387],["▁iedereen",-8.652887470003606],["komen",-8.65516988096065],["▁nou",-8.66004635020938],["▁tafel",-8.660570977769986],["▁lopen",-8.664519381831116],["ende",-8.665519682664808],["▁jongen",-8.668115777558404],["gebracht",-8.669851127158566],["▁Zij",-8.671207760504394],["▁lange",-8.673895692888031],["▁stad",-8.677541503586147],["▁vrouwen",-8.678241355257107],["▁rug",-8.678711095918475],["▁precies",-8.678842595347248],["▁schudde",-8.67963888664835],["▁sloeg",-8.679859549475108],["pakte",-8.681145106990733],["▁Om",-8.68142618988237],["▁enkele",-8.68332693895606],["▁best",-8.68550698082211],["ste",-8.68609968266251],["▁volgende",-8.686378804635476],["uit",-8.68706765466305],["▁zin",-8.687731732399472],["Een",-8.695197706908482],["▁eerder",-8.695998984846396],["▁adem",-8.69640204059725],["▁diep",-8.699040763858752],["▁hard",-8.69930443396945],["▁juist",-8.701341441835728],["aan",-8.702860972730836],["▁jaren",-8.705632655193531],["▁hoop",-8.70683513889719],["▁vrij",-8.707900307291013],["▁nacht",-8.709727211976444],["geworden",-8.71117472692555],["▁stonden",-8.71206791048969],["▁klaar",-8.71267399046476],["▁zorgen",-8.712730779736246],["▁klein",-8.713375594062713],["▁mag",-8.718502477915507],["ik",-8.72092713321541],["▁pijn",-8.723456591462604],["M",-8.729225265175385],["▁klonk",-8.731724736757641],["▁geloof",-8.735800992386329],["gingen",-8.749500097816364],["G",-8.755969716639905],["▁stil",-8.75933153788036],["jes",-8.766653900963227],["▁zie",-8.768195881787758],["▁half",-8.76900874915887],["▁schouders",-8.771485963140636],["▁zeg",-8.772509108421874],["▁woord",-8.777718352002534],["trekken",-8.779565334156676],["▁elk",-8.783597017713873],["▁familie",-8.783864762605221],["Waarom",-8.784687356951615],["liggen",-8.785059612462709],["echter",-8.789119099708731],["▁stak",-8.792474767833305],["▁vaak",-8.792772939012565],["▁ziet",-8.797492451698227],["▁weinig",-8.799836616592927],["▁elke",-8.8013823964046],["▁daarna",-8.809392380228275],["▁vind",-8.81212696206613],["▁beide",-8.813424743147856],["▁antwoord",-8.814592481146999],["▁stuk",-8.817920005146203],["▁bloed",-8.81817971495992],["▁plan",-8.822030283792875],["helpen",-8.822611634206105],["­",-8.82331406856903],["▁reden",-8.825810568554823],["▁land",-8.833429265323115],["▁waarschijnlijk",-8.834956432458577],["kwam",-8.8370423729848],["▁omhoog",-8.838792975938688],["▁Of",-8.844205462069107],["▁waarop",-8.844837980892027],["▁lijkt",-8.844933994509077],["▁tien",-8.848730031994803],["▁gedachten",-8.855647969078527],["ken",-8.861145346094125],["▁deel",-8.865398940112483],["lijk",-8.868535827367266],["soms",-8.869164456194863],["▁opnieuw",-8.870736427144946],["dra",-8.871574772410087],["▁minder",-8.871695462956685],["▁gevonden",-8.873210551488667],["▁hoor",-8.874591323229765],["▁meneer",-8.875163084336387],["loos",-8.876424729653296],["▁Ver",-8.87714430063788],["▁recht",-8.878225975547787],["waarin",-8.879366372961432],["▁vier",-8.87992114316884],["▁doe",-8.882071092733472],["▁beneden",-8.886443074873116],["▁moeilijk",-8.889117687342639],["glimlachte",-8.893502613776938],["▁langzaam",-8.894403688251916],["zetten",-8.900486817413055],["▁bedoel",-8.902763006931727],["▁Ge",-8.903944670713303],["▁minuten",-8.904089246282833],["ergens",-8.904434098484721],["▁P",-8.907964251810917],["gaan",-8.909058206119216],["▁Bij",-8.909844382172151],["zoeken",-8.910898371363793],["▁wilt",-8.91240640618536],["son",-8.91312776829883],["▁gelijk",-8.913846035570375],["▁kom",-8.918861836593608],["▁foto",-8.920110938977412],["ers",-8.92091784895704],["▁plek",-8.921089104045597],["▁gang",-8.934065119682588],["▁stoel",-8.940807260098293],["▁anderen",-8.942809703389566],["▁maakt",-8.943203547954894],["▁zoon",-8.950142038869899],["der",-8.95060687882754],["Nou",-8.953392718108061],["▁goede",-8.956309325354836],["eren",-8.956949229226648],["▁beste",-8.957059834172744],["▁gehoord",-8.958265416804332],["▁lippen",-8.958890148234731],["gehouden",-8.962090125846299],["▁bezig",-8.962691566246212],["▁blij",-8.964089790549107],["ige",-8.966749569399528],["▁tweede",-8.9689545001374],["▁lachte",-8.972113973964662],["▁telefoon",-8.972119965841252],["▁donker",-8.973093008889307],["▁zoveel",-8.976378123394037],["*",-8.983810075231906],["▁vallen",-8.984190230961138],["▁zacht",-8.984384646308063],["—",-8.98658889620413],["▁politie",-8.988360962330852],["▁jonge",-8.98862232917526],["é",-8.991964392599096],["▁geluid",-8.992010090032707],["▁Aan",-8.993323692599954],["▁kans",-8.99430606508553],["▁zwarte",-8.994356904928154],["▁gegeven",-8.995534183067926],["▁Ook",-8.995761719096492],["▁zaak",-8.997478467869716],["▁richting",-8.999255882919337],["▁vingers",-8.999759633969601],["▁slechts",-9.002278854546617],["Waar",-9.002700497100664],["bij",-9.003736687423354],["S",-9.006689668670091],["▁zoda",-9.00969725433352],["▁moesten",-9.010835445454225],["▁dezelfde",-9.011558273174884],["gezet",-9.014076890888196],["L",-9.015836760930313],["▁voorbij",-9.016757659863448],["▁vijf",-9.017005133945442],["▁R",-9.019239397386627],["▁week",-9.02643157805202],["▁verhaal",-9.03048657101219],["▁moeite",-9.03227254204465],["▁Niet",-9.032304845348367],["zaten",-9.03288159306524],["▁bracht",-9.034154598472188],["tjes",-9.035179853546104],["▁plotseling",-9.036268154203505],["Terwij",-9.036649491815067],["▁God",-9.040095828370267],["▁mooi",-9.044135766046129],["▁school",-9.046068100055557],["▁vriend",-9.04709387987369],["▁jouw",-9.05145275058222],["▁langer",-9.051755885203496],["Daar",-9.053840425868888],["▁hoog",-9.05477558822576],["ren",-9.055407751755782],["▁glimlach",-9.056668954791816],["▁druk",-9.05677813084692],["gesteld",-9.058820039290532],["▁ouders",-9.059272113089705],["tijdens",-9.059755193240564],["lang",-9.060187190554842],["gevallen",-9.061198781025144],["▁ieder",-9.06241446973135],["kende",-9.06245738315105],["Er",-9.064572025959018],["B",-9.065460902884173],["volgens",-9.07488354121915],["▁sprak",-9.074964170296717],["ver",-9.07827875266429],["▁erop",-9.082044919408858],["gekregen",-9.083997307175702],["maar",-9.084064248600518],["droeg",-9.08450543100178],["▁keuken",-9.08830933200876],["▁kort",-9.089186478520718],["▁gek",-9.092358286874743],["▁mocht",-9.09473461593277],["Heb",-9.09473900230372],["Die",-9.095124246606597],["▁glas",-9.09607351135212],["af",-9.09639737430788],["▁oog",-9.098444591147777],["maal",-9.100855596652805],["houdt",-9.10097973690792],["▁werken",-9.102708192235124],["▁rustig",-9.106123605950737],["▁straat",-9.110714360377116],["keek",-9.11636901205962],["▁eind",-9.117636942629824],["▁liefde",-9.117723667932529],["▁zeer",-9.123042396682612],["▁witte",-9.124704938257157],["▁Waarom",-9.124899664053528],["▁kijkt",-9.125313543485731],["▁schouder",-9.126360438327218],["▁vergeten",-9.127473557321748],["Goed",-9.129154458528255],["▁trap",-9.131667533648915],["▁mevrouw",-9.13617353086582],["▁voeten",-9.13694003811556],["▁dochter",-9.1375905266393],["▁raam",-9.14009207114886],["▁boek",-9.14090816886922],["▁morgen",-9.141601620177418],["▁besef",-9.144442726996472],["weg",-9.148833173290448],["▁muur",-9.14921183500678],["▁begin",-9.15008867841683],["▁benen",-9.150981595806954],["▁midden",-9.153422872766177],["▁vrienden",-9.153468868168884],["hetzelfde",-9.154755464403149],["▁gebruikt",-9.156708223775867],["▁broer",-9.15789252436944],["staarde",-9.158150567839863],["▁ter",-9.158236611931509],["als",-9.159165192842645],["▁oud",-9.161115616613806],["▁rest",-9.162240842302984],["of",-9.163745093074116],["▁gesprek",-9.165974704912683],["begonnen",-9.166080975957549],["▁vlak",-9.16774158098404],["▁koffie",-9.168691745299377],["▁angst",-9.170666823672027],["door",-9.174597255417858],["▁ligt",-9.174995184264173],["gekomen",-9.176052335484822],["▁vooral",-9.178165938764677],["ging",-9.180257462123226],["▁vuur",-9.180476967760905],["▁toon",-9.180531444772392],["▁spijt",-9.183856596840014],["▁per",-9.18532165042007],["over",-9.188091412429966],["▁buurt",-9.18815524386246],["▁kun",-9.190511120140988],["▁wakker",-9.190762267732657],["V",-9.191121851149964],["▁drukte",-9.192269928055769],["gelaten",-9.198695766692635],["liepen",-9.199040217754698],["▁nauwelijks",-9.1990604380795],["▁eruit",-9.201036987802915],["▁ruimte",-9.203910492824797],["hoewel",-9.204206913566091],["▁leren",-9.207085744833991],["▁K",-9.207209753158152],["stelde",-9.20722690038099],["▁denkt",-9.214399092924154],["▁aandacht",-9.219950535349012],["▁C",-9.22042587953518],["▁schoot",-9.226309765053818],["▁Is",-9.229664466127534],["▁stellen",-9.232239859896772],["nemen",-9.233291582784668],["keken",-9.233606112522857],["▁spreken",-9.233694407879426],["kennen",-9.233767853675106],["▁ontmoet",-9.234961388304962],["voelen",-9.238994617631752],["▁meter",-9.23908975828659],["Dan",-9.239334243540211],["N",-9.239361705670287],["▁neus",-9.241580360698247],["gevraagd",-9.242205981382645],["eraan",-9.243897304771329],["geeft",-9.246212403455798],["▁wees",-9.247465950945088],["Misschien",-9.248309029138984],["leggen",-9.249259716501392],["weken",-9.250134765071987],["stapte",-9.250845233576811],["ding",-9.256446750867251],["▁maanden",-9.257221527204084],["▁leuk",-9.257432716640013],["▁vandaag",-9.258067630144666],["iets",-9.259175856014847],["ter",-9.2601739722203],["▁Uit",-9.26130411644936],["▁bepaald",-9.26265518442457],["▁Deze",-9.26380553886282],["▁mens",-9.264147113296117],["▁liever",-9.265254762198229],["▁boog",-9.265579245495555],["▁veranderd",-9.267271492924229],["beginnen",-9.26862520801449],["▁verbaasd",-9.276049136889986],["▁slaap",-9.27664418936033],["▁donkere",-9.277530039245944],["▁slapen",-9.278724135085444],["gemaakt",-9.279435893769302],["▁stap",-9.279904165698266],["Kom",-9.280315384646787],["▁Ja",-9.28096579339232],["Jij",-9.281203787344731],["▁merkte",-9.281867264731174],["▁bleek",-9.282560706810374],["begreep",-9.290750040723992],["▁Be",-9.291240652686014],["nadat",-9.291261167260002],["▁huid",-9.291774631367613],["▁gedachte",-9.29918297639733],["verdwenen",-9.299623607540452],["▁feit",-9.29986180616316],["Mijn",-9.305127963076576],["▁jongens",-9.305454845898677],["▁stilte",-9.305515307814344],["▁meest",-9.305933977165106],["Niet",-9.30695870344844],["▁punt",-9.307334802945451],["proberen",-9.307985940924713],["gesproken",-9.309960132733416],["▁greep",-9.311526338917526],["slaan",-9.312155644702658],["sinds",-9.312649138899914],["▁fluisterde",-9.313868104101791],["blijft",-9.313909222247418],["▁vraagt",-9.315551709106904],["▁tranen",-9.315699896864526],["▁hing",-9.318316395488814],["▁kracht",-9.319292978238852],["▁zult",-9.319967058302128],["waarvan",-9.3199746647813],["getrokken",-9.321575947466442],["▁bank",-9.321616074547071],["▁kop",-9.324447938617734],["▁waardoor",-9.325661247493592],["▁zaken",-9.32570636659652],["▁meeste",-9.327901075419344],["▁eindelijk",-9.329141374053652],["▁dokter",-9.33150927689336],["rijden",-9.331572364564012],["▁borst",-9.33251595949342],["inderdaad",-9.332824432023964],["wachtte",-9.33310859759219],["allebei",-9.33545847542726],["geslagen",-9.335980234281571],["▁lachen",-9.336470276168416],["▁hulp",-9.337105917767245],["▁mezelf",-9.337448471761297],["▁ochtend",-9.339366411286088],["acht",-9.341527784028612],["▁voel",-9.346031613440172],["▁overeind",-9.34781235523288],["▁bijzonder",-9.347830223638123],["houden",-9.348414076037386],["▁vandaan",-9.349160197544634],["sch",-9.349333141824324],["▁welke",-9.35335323008876],["geloven",-9.354798852971175],["▁voren",-9.354857438857929],["▁wind",-9.356522276657817],["▁aantal",-9.36137902117352],["▁tegenover",-9.361531797100088],["▁verwacht",-9.363960236452062],["Dit",-9.36400672145204],["▁Dus",-9.365264300111546],["▁gelukkig",-9.36538264163928],["eens",-9.368600550376035],["ster",-9.3687071288611],["▁hemel",-9.369001592918869],["▁bureau",-9.372861527504192],["▁ogenblik",-9.373359487812664],["▁korte",-9.374680497228054],["oor",-9.376106897908787],["rende",-9.376185059668538],["gebruiken",-9.376983986258702],["▁voorzichtig",-9.384965237015352],["▁hoge",-9.386482145069085],["▁Waar",-9.388191302415674],["▁lezen",-9.388480167580472],["zocht",-9.38938678986101],["▁vanaf",-9.38970273235963],["▁neem",-9.390097389714136],["▁keel",-9.391688357917031],["▁mooie",-9.394182428017544],["▁Door",-9.394854150650897],["ervoor",-9.395504448913398],["▁rust",-9.397810074214153],["tussen",-9.39959168635342],["gebeuren",-9.40002266874036],["▁kantoor",-9.402571328251938],["▁Geen",-9.40382614226436],["▁opeens",-9.405046922069983],["gelegd",-9.406239092297165],["▁gedacht",-9.407964979682172],["▁pakken",-9.408662233533772],["▁lekker",-9.411068131065194],["zelf",-9.41303244751472],["▁kleren",-9.414910148980344],["▁kwaad",-9.41575997841366],["▁rode",-9.418929864218097],["▁zoek",-9.420461534574494],["▁uiteindelijk",-9.422319341499223],["▁verlaten",-9.425342626241877],["▁wierp",-9.427860837751144],["▁begrijp",-9.427905517323696],["▁vroeger",-9.428237388858346],["▁zak",-9.430122356473332],["gen",-9.43025131193126],["▁niks",-9.430874337620148],["▁dikke",-9.433412629357846],["▁waarheid",-9.43482900626107],["afgelopen",-9.435226318803052],["▁probleem",-9.435354701558827],["erin",-9.436468892518755],["▁mis",-9.436908817123085],["volgde",-9.4420886565832],["▁geluk",-9.44285765432323],["▁werkelijk",-9.443014129898822],["▁zwart",-9.443090750950176],["▁Over",-9.443525252812885],["▁hè",-9.447259333441025],["▁prachtig",-9.44844639579563],["▁daarvan",-9.45123876685228],["▁Even",-9.453697610618512],["▁reed",-9.457798119496314],["raakte",-9.45894158917381],["vindt",-9.45991416917979],["▁vloer",-9.460516129260984],["▁indruk",-9.463818103210867],["▁rand",-9.465253675156376],["▁hoek",-9.468928994217473],["Ga",-9.469187313273297],["▁onmiddellijk",-9.470874603989303],["▁voet",-9.4734397100262],["ens",-9.47399177424981],["Weet",-9.476709289809378],["▁Nog",-9.478364508447706],["mompelde",-9.480858452920533],["lagen",-9.482256324994523],["▁Ben",-9.482452297148528],["▁daarom",-9.482610052232612],["x",-9.484105588186274],["▁afstand",-9.486144842461009],["vervolgens",-9.486962622016916],["duwde",-9.487433578197672],["Wanneer",-9.490813234214617],["loze",-9.49094553316161],["▁baby",-9.491610733799227],["maken",-9.49251071995121],["▁leeg",-9.492663889868076],["▁bekend",-9.49495582727562],["gelopen",-9.495180721202267],["▁slecht",-9.496483036661546],["▁schip",-9.496938058568723],["▁veilig",-9.49777987733982],["▁vreemde",-9.497821390187962],["▁vreemd",-9.500746228981766],["▁stevig",-9.501350132150751],["▁He",-9.502478519467571],["ley",-9.5038668997643],["▁Ga",-9.504438347149035],["sche",-9.506071167644125],["▁kijk",-9.506877288707036],["▁loopt",-9.508671884799842],["▁Zelfs",-9.509156312159416],["Volgen",-9.510804727535712],["Wie",-9.51106352061644],["waarmee",-9.511575913493491],["▁loop",-9.511882857615673],["▁zwaar",-9.512399710011008],["▁aardig",-9.512889863357756],["land",-9.515447039671084],["▁zakken",-9.51550515898749],["▁brief",-9.516790872891365],["▁Tot",-9.517304423695233],["▁warm",-9.518230410762293],["▁sprong",-9.519514042028083],["▁einde",-9.52033383013592],["▁beweging",-9.524186788907835],["▁nieuws",-9.5254755664445],["▁contact",-9.525995444418294],["Om",-9.52652304600888],["▁namen",-9.528237374639204],["▁geest",-9.528311120792788],["▁meisjes",-9.528649867733147],["▁Alleen",-9.533646112488634],["▁werkte",-9.539692792515089],["raken",-9.541168441562965],["Dus",-9.541883102696538],["▁ongeveer",-9.543892079579738],["▁Re",-9.545416916861956],["▁Wie",-9.54619608507926],["Natuurlijk",-9.547681971927924],["deden",-9.547823520142463],["▁rook",-9.547901647750974],["▁Jan",-9.548169917146636],["▁oorlog",-9.551728992908284],["▁belangrijk",-9.553325519774804],["krijgt",-9.554808630433897],["▁sterk",-9.55480955673274],["▁Toch",-9.556926462173184],["▁vele",-9.55752644284184],["▁spelen",-9.557679365840238],["▁zoo",-9.558940753865135],["geschreven",-9.561200131419143],["ha",-9.562678061452155],["▁ernstig",-9.562700871758445],["oren",-9.563909428542416],["▁vriendelijk",-9.564597551079965],["▁koning",-9.564599701109936],["▁heet",-9.564772586769292],["gehaald",-9.566971398260945],["▁scheen",-9.56745379496354],["▁tuin",-9.569142929935603],["▁woede",-9.571991405116224],["▁direct",-9.572581981009431],["▁dienst",-9.574991623416048],["▁vertrouwen",-9.576294450783466],["▁wit",-9.577451623226894],["▁verloren",-9.579544889985774],["▁eenvoudig",-9.579796152265446],["▁vorm",-9.581066534709738],["▁grootste",-9.583681574652022],["▁zware",-9.585100690090536],["▁Was",-9.587656890523204],["▁via",-9.58783131623301],["zagen",-9.588178992020342],["middels",-9.588380611127029],["hangen",-9.58898830224503],["▁verschillende",-9.590498011452484],["zuchtte",-9.590612724322373],["▁kost",-9.590619895433214],["▁groter",-9.590642000754556],["aar",-9.590798523075932],["▁overal",-9.592747898333528],["▁beeld",-9.593307551054442],["▁Wij",-9.59763989996097],["zachtjes",-9.598097708956775],["▁onderzoek",-9.598954996908736],["▁geheel",-9.599186694786978],["▁paard",-9.599499791829718],["▁ineens",-9.600487207373847],["uren",-9.601841818854847],["▁begrijpen",-9.603313491385936],["▁enkel",-9.604018956129073],["▁hoogte",-9.6057104269459],["▁reis",-9.605721967933654],["P",-9.60578281990781],["▁rood",-9.605919820806422],["hoefde",-9.606817353737483],["▁situatie",-9.609723417870686],["▁Jack",-9.611016723345944],["▁macht",-9.611698605923047],["herinnerde",-9.612245799700323],["geven",-9.614685396451373],["▁drinken",-9.618332250710845],["▁John",-9.620209599226586],["▁opende",-9.620461459492883],["▁Hier",-9.6215719281055],["▁voorhoofd",-9.624398934020745],["stond",-9.625209770696198],["▁nieuw",-9.62743004060238],["▁hond",-9.62743779048706],["▁vreselijk",-9.628902730083436],["heen",-9.629245854005228],["ring",-9.630181563451377],["neemt",-9.631447293841273],["les",-9.633786009420254],["geraakt",-9.634219628150026],["ch",-9.634241300215816],["▁trots",-9.63452631274524],["▁bellen",-9.636000658269673],["▁Te",-9.636954469063808],["▁degene",-9.637276777558736],["▁heerlijk",-9.637740545678652],["▁opzij",-9.64102517958143],["▁F",-9.643123788761455],["▁slot",-9.6463789661662],["slotte",-9.647527592481914],["▁valt",-9.648479667770143],["keren",-9.649883784477137],["bereikt",-9.650624390286724],["▁bewust",-9.650689856275038],["▁bezoek",-9.651001849386384],["delen",-9.652297493723797],["staan",-9.652379188552285],["▁sloot",-9.652707073022244],["▁hou",-9.652879169956377],["▁mogen",-9.653432796123692],["ké",-9.654037694544275],["▁vriendin",-9.655358338535487],["▁Onder",-9.658246084721451],["eenmaal",-9.660219539276063],["daarme",-9.660591221653888],["▁aarde",-9.662840482936852],["▁kwijt",-9.663440222220842],["ë",-9.663545815917514],["herinneren",-9.665413564497262],["▁krijg",-9.66582634218442],["▁twintig",-9.666656458988108],["▁gemakkelijk",-9.668029868352786],["▁informatie",-9.66942483464844],["▁geweldig",-9.670365644659174],["▁bestaan",-9.67111854384916],["▁problemen",-9.671761666728784],["▁buik",-9.672473044886786],["▁groep",-9.676941104254794],["tenminste",-9.677723455715144],["▁begint",-9.682470737843287],["▁heer",-9.682799685540672],["▁toekomst",-9.683711082207818],["stopte",-9.685268926443245],["▁verdwe",-9.686381248396147],["vanuit",-9.68729600696797],["▁blauwe",-9.687776673922578],["▁volgen",-9.688551907397176],["▁terecht",-9.68936387643007],["▁volledig",-9.689857255437564],["▁Want",-9.689955084684016],["▁kleur",-9.69261231561222],["▁eerlijk",-9.695019287914894],["wonen",-9.696564621344937],["▁koud",-9.696946691498466],["▁god",-9.697378875605366],["▁wacht",-9.698758256084716],["▁iedere",-9.699568611797185],["pen",-9.700511479604028],["bleven",-9.700555145465405],["▁Ma",-9.70090998864208],["▁onmogelijk",-9.701395166807927],["▁orde",-9.70359903951858],["▁streek",-9.705430360406003],["▁jong",-9.705537516055111],["▁stel",-9.708037079046084],["▁bos",-9.713184602493078],["▁hotel",-9.713232971025448],["▁Paul",-9.7144342509384],["Laat",-9.714575594598127],["▁wijn",-9.717854549820345],["vonden",-9.71838490273002],["behalve",-9.720022394154],["▁Alle",-9.720294051675376],["▁nergens",-9.7214089304313],["▁New",-9.723230915734922],["▁vermoord",-9.723687450725096],["▁dorp",-9.724175944323903],["▁huwelijk",-9.726533602232548],["▁boeken",-9.726647685713637],["voegde",-9.72739914078423],["▁Jij",-9.728728083384386],["▁noemen",-9.729869121110744],["licht",-9.731111330111885],["hoeft",-9.734971211113988],["besloo",-9.735310176542448],["▁wijze",-9.735662636311911],["▁Ten",-9.736059237226511],["dragen",-9.736136783977548],["hield",-9.736310857046814],["▁Engels",-9.738588161854754],["▁bedacht",-9.738990809110533],["ovendien",-9.741571555068926],["▁nummer",-9.74161849200254],["gebleven",-9.742175053670072],["▁vertrek",-9.742917958296722],["▁helder",-9.743019062695392],["vanavond",-9.749877870358308],["▁zwee",-9.749912056354374],["schreeuwde",-9.751105095900002],["▁knieën",-9.75242084198416],["▁wapen",-9.753037605377845],["▁Twee",-9.753525830094372],["▁enorm",-9.75469502753198],["▁derde",-9.754771331591382],["ondanks",-9.756278969187756],["▁doel",-9.75712663922378],["▁honderd",-9.75860575174905],["▁gaten",-9.759039712967322],["voorbeeld",-9.760161822800296],["▁persoonlijk",-9.760356491541245],["drong",-9.760433085235356],["schieten",-9.76121087923727],["bare",-9.76139637889204],["voorstellen",-9.763886463184122],["voelt",-9.764067282425849],["▁kerk",-9.764409794163104],["ier",-9.765612738741233],["▁pad",-9.765614441079157],["▁gebruik",-9.766219429878776],["gestaan",-9.767028167901785],["ische",-9.76785290085735],["▁Zonder",-9.77087432050624],["▁Le",-9.77215449092852],["▁schuld",-9.77253380505852],["▁ziekenhuis",-9.772718200829788],["▁muziek",-9.772977234915905],["▁slaapkamer",-9.773739915150802],["▁vinger",-9.774187970639456],["tijd",-9.7755763676366],["▁volle",-9.776167308476944],["naartoe",-9.776169696065368],["and",-9.777230999328369],["▁klap",-9.777405889716494],["▁erbij",-9.778233729035954],["▁middag",-9.779551704345144],["die",-9.78028112951102],["▁wagen",-9.781154035307676],["belde",-9.7817898553147],["▁schrijven",-9.782648441733372],["verscheen",-9.783707941969014],["oom",-9.784657537773676],["▁bezorgd",-9.785438027615596],["leunde",-9.78558844835738],["Jullie",-9.786334045846813],["gaat",-9.787332899055883],["▁ijs",-9.787458623890702],["gestuurd",-9.787498262099056],["genoemd",-9.787825272228911],["▁bomen",-9.788576016798258],["▁boos",-9.791415510334016],["▁volkomen",-9.791506506523108],["▁dank",-9.79172926932873],["▁zus",-9.793653670886176],["lin",-9.794209748222343],["richtte",-9.795891575893132],["▁geur",-9.79613974304004],["ermee",-9.796395861065031],["▁Tom",-9.797893816639416],["K",-9.802287185786277],["▁strijd",-9.80410393962516],["▁trouwen",-9.805284428231513],["▁geef",-9.80552895755367],["getrouwd",-9.805720899543342],["▁tante",-9.806326931136969],["zelfde",-9.80659097827185],["ven",-9.807143016036015],["▁Sara",-9.80749248590922],["keerde",-9.808004007671316],["▁Alles",-9.809639517278471],["▁warme",-9.810597800649203],["▁zachte",-9.810612554464424],["▁zucht",-9.811010352964752],["Voor",-9.81481603836495],["▁verleden",-9.81504183410014],["▁woonde",-9.81650764382403],["Ben",-9.81652923582212],["▁schoof",-9.817378738636018],["▁Niemand",-9.817597526163649],["▁papier",-9.817971628694508],["▁sneeuw",-9.8206527545013],["kopen",-9.820925731233954],["▁haast",-9.82115217212806],["▁overtuigd",-9.82135910708091],["betekent",-9.821747377546394],["▁hals",-9.822080059830578],["brak",-9.823271702970809],["▁onge",-9.824406989882506],["▁gebouw",-9.825243478332425],["zover",-9.825894632095851],["▁Net",-9.826514799571736],["luisteren",-9.826971972004277],["▁wezen",-9.827010896453784],["▁haren",-9.827041726184902],["huis",-9.827892568637974],["Nu",-9.829213313155003],["▁geweten",-9.829840786721675],["▁rechter",-9.830141604515664],["▁stof",-9.831775988122953],["▁uitdrukking",-9.832099487666984],["Op",-9.83374849710077],["▁moord",-9.8350790421922],["Iederee",-9.835550718764878],["▁Peter",-9.836063505716751],["sommige",-9.837126360362063],["komt",-9.83748214130165],["vorige",-9.839952917197296],["▁wenkbrauwen",-9.841342177455289],["\\",-9.84139037261602],["▁tas",-9.84236644472695],["namelijk",-9.842378851030704],["waarna",-9.842984297117102],["▁doden",-9.843181238885872],["▁boot",-9.843431459709471],["▁rivier",-9.843650386503356],["▁La",-9.844998566484463],["leiden",-9.845320685391748],["▁rij",-9.845986475343746],["▁gebeurt",-9.847284076623016],["▁lach",-9.84833828229797],["geboren",-9.849809231835138],["wendde",-9.85096849372978],["speelde",-9.851304876837457],["▁zeven",-9.851612280002858],["heden",-9.852856085886396],["gedragen",-9.853029369790532],["vanwege",-9.858700651967045],["▁droom",-9.860824109820063],["▁Sam",-9.860913866822834],["▁rol",-9.861923645377743],["▁rechts",-9.862523495722671],["▁moe",-9.862807498117082],["▁maak",-9.864265628923292],["▁stenen",-9.864492328245102],["▁leken",-9.865696659293716],["▁leger",-9.867402065555524],["vertrokken",-9.868754977688877],["▁stukje",-9.86990249183697],["klinkt",-9.870303682987812],["▁Lang",-9.872268109617517],["hoopte",-9.87501057511587],["▁word",-9.87505309258145],["zag",-9.876898758237916],["▁gericht",-9.877601146527995],["▁relatie",-9.877647527937324],["▁wangen",-9.879364516987808],["▁strak",-9.879873680251675],["▁kent",-9.879894528070569],["veranderen",-9.880712580301674],["▁paarden",-9.881207539407708],["▁boord",-9.881702232699396],["▁schoon",-9.88194923086524],["▁gevaar",-9.882415130430116],["gooide",-9.88295420150932],["▁schoenen",-9.883310435671763],["▁Zou",-9.884081047376078],["roepen",-9.885256838960084],["gezien",-9.887162956880845],["Dank",-9.887572853545691],["▁jezelf",-9.887637347841048],["▁Nee",-9.887903756549704],["▁the",-9.88824870834146],["▁pak",-9.888298961954671],["▁erger",-9.889082926343182],["▁thee",-9.88926895051497],["gezeten",-9.890292236645926],["▁persoon",-9.890308944805856],["▁fijn",-9.891760653190376],["▁slag",-9.892594143244244],["▁flink",-9.893564939022612],["▁vak",-9.893729289666087],["vol",-9.894313902869238],["▁Londen",-9.896938332510691],["voeren",-9.897324628914223],["zaam",-9.897357377927705],["poging",-9.898378094529518],["gebeld",-9.898481657892642],["▁leeftijd",-9.900143327028916],["voor",-9.900464430325744],["▁tanden",-9.901962151437024],["wisten",-9.90379810490344],["daarvoor",-9.90491084496573],["onder",-9.904933595587778],["vertrekken",-9.90584361968442],["▁gij",-9.905921277064367],["▁spoor",-9.906232225111582],["▁stappen",-9.906291001518593],["▁Anna",-9.90687636632232],["▁lijf",-9.907877183950298],["zij",-9.908183328824212],["▁regen",-9.908708484271203],["lieten",-9.908824138429924],["▁geleerd",-9.909564791128826],["▁gauw",-9.909579745339103],["▁broek",-9.911981983418048],["▁Hun",-9.91384784452653],["werk",-9.914499748680198],["▁collega",-9.916757474189756],["▁gevoelens",-9.91722665784642],["▁omlaag",-9.919491195347987],["sturen",-9.920012916936448],["▁Me",-9.922527906177844],["▁baan",-9.922924771332951],["▁verlangen",-9.923152548805511],["▁David",-9.925386626570049],["▁kennis",-9.92562748740244],["erover",-9.928240690729575],["vallen",-9.928636833045983],["van",-9.929030973209091],["▁verschrikkelijk",-9.932581601197002],["lopen",-9.933764504840475],["veel",-9.934909277559797],["huilen",-9.935253914659883],["luisterde",-9.936028183245346],["▁scherp",-9.936331129237685],["liep",-9.936636829992416],["zo",-9.936980343897051],["beloofd",-9.937218788840893],["▁gesloten",-9.938077554558312],["bestond",-9.938762733983827],["Geen",-9.938786904902877],["Wil",-9.93884842488796],["▁luid",-9.939265555499702],["herkend",-9.94055184019614],["glijden",-9.940945160583569],["C",-9.94106906746198],["▁beet",-9.941244608996785],["gestoken",-9.941253149825856],["▁steen",-9.942082694921163],["▁muren",-9.942160940802411],["▁Jo",-9.942578066021207],["zien",-9.94370598555416],["▁maand",-9.94397799921636],["trouwens",-9.944310830996304],["laten",-9.944456736957568],["allerlei",-9.945368104670326],["▁Alex",-9.946430829084012],["voldoende",-9.946669418898562],["▁achteruit",-9.950625115941166],["voortdurend",-9.950863496131392],["▁wilden",-9.950889827379324],["▁Had",-9.951364774046246],["▁verdriet",-9.951430572269858],["▁links",-9.952304823189536],["▁diepe",-9.953591900954429],["▁lief",-9.955460795369651],["duurde",-9.95633330144903],["▁vlees",-9.956435649848082],["hief",-9.95700190961578],["▁hoeveel",-9.95723600255828],["zulke",-9.958166960009432],["hielden",-9.95883133635532],["recht",-9.96006454744483],["gewend",-9.960925465453975],["redden",-9.961146731125275],["▁lijken",-9.961497869208502],["F",-9.963128014143985],["▁jas",-9.967712317225612],["▁bereid",-9.967924533301506],["▁geheim",-9.968562233638822],["betalen",-9.969812307957492],["▁houten",-9.97018512246934],["reageerde",-9.970986607637943],["▁hare",-9.971631273017564],["▁tevreden",-9.971679520631],["▁kilometer",-9.972191600710048],["Van",-9.97396269842235],["▁been",-9.97434035101034],["draaien",-9.974511927252536],["brede",-9.974926300892976],["▁di",-9.97514856244372],["gespannen",-9.975289038636948],["▁zomer",-9.975956525795771],["blijkbaar",-9.976365358709367],["▁Som",-9.976984167364208],["▁immers",-9.977697766537192],["R",-9.979957790941354],["▁gezin",-9.980685527534686],["gevolgd",-9.981210059258451],["▁dak",-9.98142876748168],["▁gezelschap",-9.98252753526719],["▁achterover",-9.982817574083745],["▁Mr",-9.983963741199767],["▁tong",-9.984621196300049],["betekende",-9.984860441008705],["▁soldaten",-9.985138828105258],["▁gebaar",-9.98601608702903],["▁normaal",-9.986061120850792],["▁vrolijk",-9.986997649299951],["bewoog",-9.988113545604662],["▁jurk",-9.990411476905717],["Met",-9.99077874345921],["gegeven",-9.990944730081145],["▁omgeving",-9.991834503638666],["geprobeerd",-9.992609834811008],["▁St",-9.993329007283297],["▁voorkomen",-9.99348675533047],["▁vermoed",-9.99378010831502],["bieden",-9.994661113357882],["▁verkeerd",-9.995124869783636],["by",-9.995623335207387],["▁last",-9.99579330128841],["▁schaduw",-9.99614036810373],["▁zand",-9.99884383478029],["▁ma",-9.999519108747114],["begrepen",-10.001104601893047],["▁reactie",-10.001374315850848],["besloten",-10.001483520606794],["baar",-10.00180069256536],["kregen",-10.004395290857584],["gleed",-10.004666803348435],["▁lege",-10.0048407116179],["▁Heb",-10.005706327145967],["▁ziek",-10.006661184933558],["▁dichter",-10.00756104996959],["▁kussen",-10.008593287081784],["enorme",-10.009051476927226],["▁Nada",-10.009627871090537],["▁middel",-10.01029839444586],["▁blijf",-10.010438531260874],["▁Pas",-10.013255096735802],["/",-10.013294133267014],["▁teken",-10.01336608975579],["bereiken",-10.01394459216686],["▁extra",-10.014804983608483],["klopte",-10.015590991024766],["▁probeer",-10.017100071295276],["ingen",-10.01770349111519],["▁straks",-10.019636565230533],["▁las",-10.020582598045811],["men",-10.020998001250698],["▁herhaalde",-10.022039570457276],["▁winkel",-10.022941049767274],["▁totaal",-10.024022283491483],["▁to",-10.025947618044858],["▁twijfel",-10.026015665030064],["▁gras",-10.026568146801136],["verantwoordelijk",-10.026624774653753],["▁wang",-10.027504073183511],["▁ruim",-10.029105415601505],["leidde",-10.029424853940055],["▁baas",-10.030118561045],["▁volk",-10.030432266240584],["▁prijs",-10.031192118394973],["▁kalm",-10.033294460297665],["▁sta",-10.034549733002407],["▁passen",-10.035357644276734],["▁kuste",-10.03583495954405],["▁tegelijk",-10.036544907349686],["▁Nick",-10.037385969799002],["▁energie",-10.03752879399812],["▁plezier",-10.03849034090308],["▁Ha",-10.040431590134537],["▁houding",-10.04108172801428],["▁gebied",-10.041918497317155],["▁vervolgd",-10.04275305600784],["▁kus",-10.045567439300594],["va",-10.04624282226559],["▁harde",-10.048076530430665],["▁behoorlijk",-10.048077743778313],["▁steek",-10.048403029888323],["▁schreef",-10.049866282554913],["▁verborgen",-10.050868810642664],["▁herinner",-10.051167882776312],["ochtend",-10.053885071911711],["doen",-10.054332253927663],["▁York",-10.054472409499525],["▁Anne",-10.055341174776167],["▁Max",-10.05602989027942],["▁zorg",-10.056518937623627],["gewerkt",-10.057479496461964],["▁werkt",-10.057568756708076],["▁bar",-10.058195291948676],["▁kin",-10.059461763402131],["Hier",-10.059878393113928],["▁Mi",-10.060386475161138],["▁kapitein",-10.061428905058872],["gepakt",-10.062952509194094],["alsjeblieft",-10.06318478271448],["gelezen",-10.063455464058292],["ontdekt",-10.063822847068872],["▁Tegen",-10.065178320221827],["▁Ro",-10.06604724784751],["▁boom",-10.06607357038628],["Harry",-10.0671797081163],["ham",-10.068448954969472],["▁beslist",-10.069109695922242],["▁Natuurlijk",-10.069341300429553],["▁rekening",-10.069403763010122],["▁opdracht",-10.069984740140605],["▁ziel",-10.070639096307463],["▁Simon",-10.071726632734086],["▁hout",-10.071908917444087],["▁strand",-10.07242491720912],["geschoten",-10.072793848383876],["Denk",-10.072889658829254],["▁ouder",-10.074022996970124],["▁huizen",-10.074273018591542],["Zeg",-10.07453943223184],["▁kennelijk",-10.075026867289122],["▁zichtbaar",-10.075485067031016],["▁prettig",-10.07732094715668],["▁verte",-10.078243469197496],["▁film",-10.078555137846548],["▁laag",-10.081755341397288],["betreft",-10.083607190565552],["Iemand",-10.083623119052742],["elijk",-10.084851242967632],["bestaat",-10.085374622310184],["▁groene",-10.085498075244567],["▁aanwezig",-10.09055537923967],["▁fles",-10.090868310504709],["▁berg",-10.09189915931286],["eeft",-10.093010668718335],["hielp",-10.096141555125614],["▁brand",-10.097345170901056],["verliezen",-10.09887141322295],["▁Mo",-10.099592770915034],["▁mama",-10.10194605077754],["atie",-10.10340389647511],["▁noch",-10.103431111437958],["▁agent",-10.10352417343432],["▁herinnering",-10.104271619503804],["Doe",-10.104298788045671],["hoort",-10.1048347122015],["bevond",-10.105566707730434],["▁goud",-10.10691900135431],["▁krant",-10.107615719800547],["▁Nederland",-10.107786226761876],["▁spullen",-10.108337588753116],["▁glazen",-10.108731276682082],["▁verliefd",-10.109016735892512],["▁hoeven",-10.109334078611717],["▁verhalen",-10.109541302472222],["▁grijze",-10.109850981198848],["▁maag",-10.110398771252076],["ons",-10.110868312029067],["▁sterven",-10.111119265814713],["breken",-10.111495711599364],["▁seconden",-10.11347871025304],["▁prima",-10.113898550856238],["▁dertig",-10.114050348565856],["▁hal",-10.1145481308807],["aarzeld",-10.11532344385939],["▁pistool",-10.117699719547147],["▁sleutel",-10.118796049775057],["▁pakt",-10.119403361890342],["sluiten",-10.12149023591656],["▁ramen",-10.1223608505413],["▁behoefte",-10.122844052174615],["▁bloemen",-10.123299745975917],["viel",-10.1233535295296],["▁min",-10.124793031102415],["▁ware",-10.124834041037785],["gekleed",-10.1262361793059],["▁meester",-10.127926398387013],["schelen",-10.128508496191891],["▁koude",-10.128555005954892],["▁twaalf",-10.128847776899848],["▁blauw",-10.131465675445],["▁On",-10.13267081000124],["kwestie",-10.135253560969304],["▁hoef",-10.135279090462603],["▁spiegel",-10.135293313539924],["▁geschiedenis",-10.136623360975207],["▁halve",-10.137167275258468],["▁bedenke",-10.137499644095795],["▁verkeerde",-10.13755641009095],["▁El",-10.13789346969481],["▁ongeluk",-10.138254178468133],["Wij",-10.138334818372392],["▁trein",-10.138504700388706],["▁Amerikaanse",-10.138838165932766],["▁Richard",-10.139480337312063],["▁gelegenheid",-10.139550809364543],["▁spel",-10.140469370380991],["ling",-10.141332907289907],["▁stoppen",-10.141417291762613],["▁motor",-10.141899085634291],["▁plannen",-10.142506770551412],["▁smalle",-10.142735968128129],["▁dieren",-10.144573990555411],["▁val",-10.14534188836696],["Kijk",-10.146454101145086],["▁Laat",-10.146940824565156],["omstandigheden",-10.148609784219968],["▁merken",-10.149299845511225],["▁verbazing",-10.15084048215938],["▁steken",-10.15143165568221],["kamer",-10.151503215792266],["gekocht",-10.151744981422212],["meende",-10.151798903469476],["▁duisternis",-10.152814549746854],["▁moed",-10.152835327358924],["het",-10.153615269615146],["▁bewegen",-10.15593167130712],["nacht",-10.156952445920073],["gaven",-10.157156548921837],["▁ervaring",-10.157356090976378],["▁gisteren",-10.15746162129342],["▁Nou",-10.157604346777545],["slagen",-10.158544198286288],["toe",-10.159883995834656],["▁voordeur",-10.160021392125207],["▁trekt",-10.161547014354392],["▁Achter",-10.161578332656248],["▁lastig",-10.162027426872925],["Sorr",-10.162148000912124],["▁top",-10.162170421994851],["lachend",-10.162202069442197],["▁eiland",-10.1623870255431],["rennen",-10.162426408418405],["▁paniek",-10.162599377464442],["▁werkelijkheid",-10.162728629544098],["Late",-10.163490906000025],["alweer",-10.163891063959658],["noemde",-10.164234783219207],["▁zuster",-10.165079328736343],["gebouwd",-10.16515057640977],["▁trek",-10.16596812365984],["zwijgend",-10.1663170197389],["Neem",-10.16741498531156],["▁stom",-10.16848828260842],["trokken",-10.168528384314357],["▁verband",-10.169245704161812],["▁risico",-10.169309577396811],["▁gasten",-10.169354433886502],["estal",-10.17001476150458],["▁George",-10.170131334457997],["▁seks",-10.171229193460537],["durfde",-10.171246996480992],["avond",-10.171527627807286],["▁levens",-10.172149550227893],["▁daarop",-10.17274410969739],["▁Joe",-10.17336867013282],["eerde",-10.173517064765472],["▁beurt",-10.173718815807792],["gekeken",-10.174522130797577],["▁bad",-10.175317528105502],["▁vent",-10.175694517152156],["egelijkertijd",-10.178155837496892],["▁gouden",-10.17849112880087],["▁Men",-10.180259800731855],["▁zwaard",-10.181100589803858],["▁besluit",-10.18149304697639],["▁Luc",-10.181963743112457],["helft",-10.182134855792697],["▁raad",-10.1823026867734],["▁band",-10.18269862454451],["▁stuur",-10.183440548346844],["▁Frank",-10.184067648454985],["▁Pa",-10.184292753929078],["▁Will",-10.184485437398852],["▁deuren",-10.184887741460267],["ette",-10.185367172095058],["tilde",-10.187287998003823],["lotseling",-10.188416767548013],["ij",-10.188587180564497],["achteren",-10.189830173710382],["vloog",-10.190166602420762],["▁computer",-10.191026682220503],["▁brood",-10.191925032546283],["bovendien",-10.19408468444974],["▁dwars",-10.194320624058722],["▁vrije",-10.194516640452791],["▁Mark",-10.194523798928378],["thans",-10.194585531553605],["▁Eerst",-10.194838146494996],["▁dol",-10.197658643296108],["▁vlucht",-10.198817000015673],["▁pijnlijk",-10.198842119802409],["▁papieren",-10.199416756687796],["▁belang",-10.199524665243802],["▁perfect",-10.199612648743749],["▁vliegtuig",-10.200253955534688],["brengt",-10.20232647792119],["▁beschermen",-10.203128795256086],["▁bedoeling",-10.203921765862937],["▁Mary",-10.20411087410516],["▁gevaarlijk",-10.204291847643365],["▁sprake",-10.204324876918111],["eindelijk",-10.204924312464962],["▁fout",-10.204945633673232],["▁kamp",-10.205408134363836],["sneller",-10.205466849422072],["▁tevoorschijn",-10.205901038662908],["▁droog",-10.206202169786785],["▁sterke",-10.206504679062652],["Meneer",-10.207606525091869],["ger",-10.208440124204632],["▁Kom",-10.210923514561632],["▁vliegen",-10.211469108527558],["▁bel",-10.212607480037189],["Iets",-10.2132499091605],["▁appartement",-10.213465302778554],["▁gemak",-10.213537921560556],["▁houd",-10.213941957472468],["▁kanten",-10.214859286598136],["treden",-10.215188015178793],["▁bord",-10.216133988999944],["woedend",-10.21710537258044],["▁vertrok",-10.217326372673886],["▁betaald",-10.219079025172416],["▁kunst",-10.220988309403468],["erde",-10.221083900550802],["laas",-10.221432763391531],["▁snelle",-10.222432987368167],["Geef",-10.222471566746687],["▁lijn",-10.223398989084476],["zeiden",-10.22450118389833],["nigszins",-10.22464078735808],["▁papa",-10.22714333480573],["▁Emma",-10.228090525887934],["juist",-10.22858067754744],["gekozen",-10.229534683326456],["▁schrik",-10.229610748498798],["geloofde",-10.230142376283842],["▁Af",-10.230156821355433],["slaat",-10.231320007935002],["daarbij",-10.231903931821549],["heette",-10.23318262856473],["▁dik",-10.233587806330688],["▁taal",-10.233795752140358],["ly",-10.233836508351864],["▁dichterbij",-10.23536244708457],["Ach",-10.235868981326073],["▁vormen",-10.235939250366544],["fronste",-10.23603920494068],["▁zaal",-10.23622502247073],["▁Heel",-10.23681714647887],["▁scherpe",-10.23702598898644],["▁lieve",-10.23916620380047],["▁wou",-10.23945055424683],["▁James",-10.241188219367766],["▁Bo",-10.24164486791648],["gevoeld",-10.241845862334204],["▁wijd",-10.242000680724257],["▁nieuwsgierig",-10.242438870245296],["▁kaart",-10.24283245132162],["▁Ho",-10.242853806730022],["▁The",-10.243156290333513],["klopt",-10.245112234254936],["▁erachter",-10.246345995503647],["▁kerel",-10.246352356178376],["zwaaide",-10.246607881466112],["▁gebroken",-10.247359017388844],["kneep",-10.247390542187196],["▁feest",-10.248955195391137],["▁succes",-10.24951677968485],["▁Di",-10.250801620132584],["ook",-10.251564448182394],["Hé",-10.252350506236509],["▁radio",-10.25247089035422],["▁Weer",-10.25284146043426],["▁wanhopig",-10.25286843718443],["▁gedrag",-10.253019900253737],["morgen",-10.2533414063638],["▁makkelijk",-10.25349710532386],["▁positie",-10.253782732107826],["▁praat",-10.253807419734304],["▁honger",-10.254706072048354],["▁schat",-10.255744359627704],["▁afscheid",-10.25663223580058],["absoluut",-10.256969290126824],["▁enig",-10.257514613073754],["▁vrede",-10.257543708375932],["▁dode",-10.258038853474126],["▁da",-10.258280215546446],["▁Kate",-10.258931487209026],["▁kast",-10.259433582703974],["▁Wel",-10.2596509478888],["▁honden",-10.26034670144207],["ongetwijfeld",-10.263090620272802],["▁ex",-10.263423774685243],["▁Martin",-10.265786960544585],["▁Maria",-10.265792218305878],["▁vijftig",-10.265897568145736],["▁Michael",-10.266207395959515],["▁Li",-10.266546603299023],["tenslotte",-10.26657529297432],["▁negen",-10.26814748549592],["▁onderwerp",-10.27064188523738],["▁badkamer",-10.272200986868189],["▁sigaret",-10.272864987689196],["▁Thomas",-10.273215682100409],["▁publiek",-10.274119630072],["ker",-10.27467723635513],["▁kust",-10.275004134610723],["winnen",-10.275045763784531],["▁schrok",-10.276335291345434],["▁juffrouw",-10.276633669473632],["gedaan",-10.276968986863638],["Nog",-10.277150996647473],["duren",-10.277837673554464],["gel",-10.278073166697215],["▁rijk",-10.27908903866025],["▁lot",-10.279188223879318],["▁zwak",-10.279314206235023],["rusten",-10.279542245630578],["▁minuut",-10.28091658251225],["▁groen",-10.281920713491097],["▁vooruit",-10.28326318272804],["▁stukken",-10.28332933705395],["▁taak",-10.283761744125435],["vielen",-10.283834172132972],["▁gewone",-10.28422673847777],["gekeerd",-10.285623114761352],["▁Wil",-10.286110049389013],["trok",-10.286185153116708],["▁zweet",-10.286259734293996],["▁opgewonden",-10.287063594388655],["gaf",-10.287095751787485],["▁borsten",-10.287143046694158],["▁simpel",-10.287239792872958],["▁lunch",-10.287366974459305],["▁aanwezigheid",-10.28754068480434],["▁bewijzen",-10.287787832680491],["▁wonder",-10.288312451956278],["verliet",-10.288772908705132],["▁bewijs",-10.289449834807105],["▁jeugd",-10.2895026379311],["▁vertelt",-10.290282790204918],["▁Sa",-10.290522515816706],["▁bedrijf",-10.290886015198726],["▁spanning",-10.291572583514824],["achter",-10.291885242578774],["▁bier",-10.29195986784381],["▁dromen",-10.292324421398853],["▁bekende",-10.293698882480312],["▁gevangenis",-10.295367523580062],["▁plaatsen",-10.29681881896638],["▁naakt",-10.297161811398317],["▁vis",-10.298416563163595],["▁stemmen",-10.298876673016366],["▁gevolg",-10.299817015045209],["ard",-10.299839511673191],["▁vakantie",-10.300373281384228],["▁gevangen",-10.301869124574644],["▁eeuw",-10.304319897883971],["▁schijnt",-10.304474959799432],["middag",-10.306052934021237],["▁aanval",-10.306855499131323],["▁bezit",-10.30731991218856],["▁rechtop",-10.307513077591205],["▁schonk",-10.309166965634184],["▁afspraak",-10.309480190576808],["▁mes",-10.309716151620968],["▁winter",-10.309777388712586],["▁Ar",-10.310474249574511],["Ver",-10.312390607693628],["▁dronken",-10.313420057863626],["dag",-10.313958627194936],["▁oudere",-10.314202125173551],["bel",-10.315163924436716],["▁maan",-10.315738432389717],["▁vertel",-10.315913843771668],["▁schuldig",-10.317472739068895],["liefst",-10.31774754721564],["veegde",-10.318689869384556],["waar",-10.319564538350532],["▁terrein",-10.319914214426989],["gedrukt",-10.31993149315026],["▁Parijs",-10.3203029304919],["haalt",-10.320354808875605],["▁belangstelling",-10.320549510609268],["▁regel",-10.320826513477767],["▁zorgvuldig",-10.321162053171708],["▁dronk",-10.321372600743237],["per",-10.32346872468543],["▁betrokken",-10.32408086997986],["gestorven",-10.324081088538296],["▁herinneringen",-10.324571786439313],["▁voorover",-10.325129779876184],["▁hevig",-10.325202365234212],["▁verstand",-10.325895657216977],["zeer",-10.326476548775382],["achtige",-10.326665767712267],["probeert",-10.326826259611606],["▁boodschap",-10.327363042115262],["▁Robert",-10.327404314547008],["weigerd",-10.3278135869181],["▁verklaring",-10.32821562622416],["aal",-10.328586863684505],["pakken",-10.328821544277517],["▁zijde",-10.32890463461434],["geroepen",-10.328999288144288],["▁toevallig",-10.329075752740334],["val",-10.329806306160064],["▁blijk",-10.32984860229997],["wreef",-10.33025483432016],["▁afschuwelijk",-10.3311831207919],["▁somber",-10.33196880440912],["▁mogelijkheid",-10.332013349276329],["▁dollar",-10.332062981407452],["ontvangen",-10.332827061811187],["▁Da",-10.332872223978836],["verdwijnen",-10.333214370121896],["telkens",-10.334228455586183],["nieuw",-10.335578926998664],["▁Duitse",-10.337179540149004],["▁controle",-10.339535379231256],["▁haastig",-10.33974551478724],["▁lift",-10.340033882856504],["▁opmerking",-10.340299518514158],["reeds",-10.341155341751202],["Eigenlijk",-10.34188407749271],["verrast",-10.34497163374836],["▁grijns",-10.34515261224483],["▁vóór",-10.34525725976978],["kreet",-10.345537475771009],["▁ruzie",-10.347156457138526],["▁horloge",-10.34722038110713],["▁dame",-10.348023587049097],["springen",-10.348439966735905],["▁gerust",-10.348522004179038],["▁mening",-10.34945236129222],["leven",-10.34967998154544],["▁bericht",-10.35029237565852],["▁dankbaar",-10.35034662011178],["▁Car",-10.350493695374752],["ernaar",-10.350811986481478],["rolde",-10.352639421384596],["▁heuvel",-10.353600548906345],["▁tegenwoordig",-10.354264586034676],["▁gezichten",-10.35443904756081],["▁kiezen",-10.354960585875686],["staren",-10.355948748864536],["getroffen",-10.356372690495771],["▁zwijgen",-10.356785035065784],["▁verschil",-10.35686769227788],["▁Co",-10.357787545435077],["▁haat",-10.359090033685934],["▁plastic",-10.360633921744292],["▁arme",-10.361469812604687],["glimlachend",-10.36150784862759],["▁sporen",-10.362239290962474],["▁echtgenoot",-10.362257484699114],["komende",-10.362452093236891],["▁restaurant",-10.36271251194206],["▁Franse",-10.363624745036082],["leefde",-10.363839172886326],["oals",-10.364050757172237],["▁Mar",-10.36588114078172],["▁Hanna",-10.367464322323112],["gereden",-10.367589996998674],["▁duister",-10.367949276098829],["Kun",-10.368065804647406],["Hallo",-10.36998953643499],["eerd",-10.371538304408494],["▁fel",-10.371692631701116],["▁Ri",-10.374525525394183],["▁camera",-10.37543065380141],["▁bruine",-10.37571739674588],["▁Mac",-10.375868078853744],[">",-10.376326254796204],["▁warmte",-10.376815427413582],["rgelijke",-10.377106338497352],["▁vijand",-10.377216415853066],["Wel",-10.377526689577778],["▁bevel",-10.377970058799097],["▁kwalijk",-10.37801906226265],["▁breed",-10.378342530416232],["grinnikte",-10.3787544487605],["shirt",-10.379127026659996],["▁antwoorden",-10.379769275189693],["▁natuur",-10.380709855282616],["komst",-10.380982411120078],["▁sterren",-10.3813068690461],["▁onschuldig",-10.381703724767604],["voerde",-10.384026828812509],["stuurde",-10.384064463942073],["▁onderweg",-10.385406980085977],["▁plafond",-10.388408027637588],["▁Frans",-10.38881375278786],["▁regelmatig",-10.389134628488016],["waarschuwd",-10.389142756203272],["▁No",-10.389211450235647],["richten",-10.3900114591335],["▁wapens",-10.390111311635769],["▁belangrijke",-10.390511628772826],["Al",-10.391879159879627],["▁ruw",-10.39209125943014],["▁bergen",-10.392370258173292],["▁onverwacht",-10.39261625927932],["slikte",-10.395160201533786],["▁Drie",-10.39666907942543],["▁slechte",-10.3967652545891],["ving",-10.39732598260801],["▁kat",-10.397906959941071],["▁vlug",-10.397917997514282],["▁woonkamer",-10.398078782552066],["▁ziekte",-10.399245507469448],["menigte",-10.400212503756364],["Of",-10.40072612038206],["gaande",-10.400796711654078],["▁seconde",-10.402521596680716],["▁Binnen",-10.40291735235292],["ndanks",-10.403280811553842],["▁hoger",-10.403726742124473],["bedoelde",-10.404076499374332],["gevoerd",-10.405718679540852],["▁dunne",-10.407238770963795],["▁stille",-10.408641019475384],["▁laatst",-10.408705359386676],["▁ontbijt",-10.409995066017077],["▁televisie",-10.411743229251824],["▁toestand",-10.411870217303932],["▁verstandig",-10.41271914695044],["▁dom",-10.413344374459358],["kant",-10.414265398535324],["▁advocaat",-10.415045049230937],["▁douche",-10.416965855121768],["▁Gelukkig",-10.41753789000041],["▁smaak",-10.419372006440137],["▁Waarschijnlijk",-10.421124793102337],["ontdekte",-10.42172130340484],["▁wild",-10.42197936380453],["Toen",-10.42204543052799],["sliep",-10.422434265599104],["deuropening",-10.422864670600624],["▁taxi",-10.42298140386078],["verwachtte",-10.423389699076475],["verbergen",-10.42390358662644],["berg",-10.42446922540421],["kroop",-10.42501672669001],["gebogen",-10.425833860677566],["grijnsde",-10.42658922114091],["▁serieus",-10.426888854279447],["snaam",-10.427034304093375],["▁wijs",-10.428947640624456],["▁jongeman",-10.429500640338665],["beschouwd",-10.429718862276912],["▁waarde",-10.429745478844843],["▁president",-10.430445704777403],["isch",-10.43106347010076],["▁ingang",-10.4322797553352],["▁veld",-10.432344395282428],["▁vechten",-10.432740227985745],["▁rots",-10.433202319475935],["Maak",-10.433404827919745],["▁miljoen",-10.434316782811534],["▁hangt",-10.436496927233655],["▁roze",-10.436770144860454],["betekenen",-10.436805651212769],["Zijn",-10.437556368319214],["▁gewicht",-10.437627843286212],["gespeeld",-10.438095876233982],["drukken",-10.438421270135722],["zorgde",-10.438818357978793],["▁portier",-10.439370830615871],["▁slachtoffer",-10.439377036753587],["lijn",-10.439715595637898],["▁bood",-10.440312929370648],["▁aard",-10.440484043461495],["vermoeden",-10.441915757593216],["▁Zie",-10.442819077207204],["▁chauffeur",-10.443059414240471],["▁kapot",-10.443277250267316],["▁gelegen",-10.443316484696563],["▁woont",-10.443761076285856],["▁type",-10.443819721099382],["▁adres",-10.444184401348588],["▁Veel",-10.444793470753428],["rok",-10.44538553210454],["▁moordenaar",-10.445430514923894],["▁koel",-10.445640844835118],["▁heftig",-10.445801929826008],["▁verdomme",-10.447078440663072],["▁Sind",-10.44737992499052],["verwachten",-10.447862751919972],["▁draait",-10.44787489267673],["▁Engeland",-10.447887971504008],["▁Meer",-10.448089108461016],["veroorzaakt",-10.450549348034349],["▁schok",-10.450763563324724],["▁mede",-10.450892787244843],["geholpen",-10.45137385916836],["▁Heer",-10.451792185752868],["gedwongen",-10.45184602590565],["belangrijkste",-10.451873077156293],["▁Y",-10.45271742037734],["▁Charlie",-10.452950379089472],["▁respect",-10.45408644761138],["wat",-10.454286188437935],["genoten",-10.45505467203438],["durende",-10.455671820708751],["▁lijst",-10.456111344969528],["deur",-10.456247421289977],["▁vochtig",-10.456339412430092],["gooien",-10.456873743771132],["▁pa",-10.45691007249352],["genieten",-10.457017202327776],["▁straten",-10.4571354064623],["▁Eén",-10.45865064825575],["▁ruk",-10.4589630343697],["▁dichtbij",-10.459101602536183],["gebonden",-10.45945338933],["hingen",-10.460174325056002],["▁blikken",-10.460251876669515],["▁avonds",-10.460393289706778],["▁geweld",-10.461107176019016],["▁gat",-10.46114457387353],["tafeltje",-10.461876561954982],["kort",-10.462595102400432],["▁stapel",-10.463026586026167],["toegeven",-10.463291930739304],["▁post",-10.464126518827449],["▁mist",-10.46434042836251],["maals",-10.465011411623616],["▁knie",-10.465832540548584],["▁verdieping",-10.465843116278824],["▁bus",-10.46743036557052],["dan",-10.467943237449855],["legt",-10.469418302512384],["▁keurig",-10.469442686727696],["▁Ni",-10.469619384636191],["▁zul",-10.470031677745194],["▁achtergrond",-10.470703849051272],["stroomde",-10.47086882435008],["boel",-10.47090060186341],["▁Bob",-10.471468407233342],["▁kleding",-10.471593535072753],["▁snap",-10.47244865295095],["Jake",-10.47267351973928],["▁uitstekend",-10.47384790590788],["▁Henry",-10.4739133483154],["vast",-10.47409289314549],["▁vaag",-10.474188749607125],["gepraat",-10.474960062175034],["▁Ta",-10.475493102742222],["strekte",-10.4763606581982],["▁gele",-10.476513075891162],["▁Amsterdam",-10.476716266420317],["▁scherm",-10.477544225706394],["▁Rose",-10.477743813797987],["▁fiets",-10.477827540939424],["▁brieven",-10.478320314302696],["▁ontzettend",-10.480544435363514],["▁beelden",-10.480949873182135],["nadenken",-10.48184060860834],["▁weekend",-10.482145996398271],["▁leer",-10.483774936345307],["Mag",-10.483856719067752],["▁opwinding",-10.483875034085694],["▁melk",-10.484075007623268],["opgelucht",-10.484359813228062],["mond",-10.484776893916536],["▁haal",-10.484864709062942],["▁vreugde",-10.485128725475148],["▁koningin",-10.48561699901732],["▁stroom",-10.487263177587668],["▁bitter",-10.487723273332245],["▁schoten",-10.487785756820347],["Hou",-10.488060810261928],["laakte",-10.489124070391233],["▁snelheid",-10.489604588520166],["roept",-10.490801633262954],["▁voedsel",-10.491022215174436],["▁steun",-10.494345455205323],["▁durf",-10.494686153698993],["▁onbekende",-10.494937651491382],["▁krachtig",-10.495175151172702],["verkocht",-10.496411114404806],["▁procent",-10.496687271579],["ontsnappen",-10.496748617360293],["aangezien",-10.496932920451547],["deed",-10.497159957884715],["▁jacht",-10.498387102545548],["▁eeuwig",-10.498496007261933],["gezocht",-10.498751682017714],["▁heren",-10.49894025962516],["bouwen",-10.499621932510957],["opluchting",-10.499639431883294],["praatte",-10.500513900761584],["▁verzoek",-10.5007331781957],["▁Ca",-10.501048812381145],["gegeten",-10.50145332743106],["▁bodem",-10.504019186787792],["▁To",-10.504202884897031],["▁verre",-10.504644455989792],["▁Charles",-10.50476033471694],["▁brug",-10.50566448257403],["▁beleefd",-10.506545516041218],["▁aantrekkelijk",-10.50695943070299],["▁invloed",-10.507204369745216],["▁zwanger",-10.50761818099785],["▁vijftien",-10.508022813898512],["▁grens",-10.508283839740004],["▁verrassing",-10.508540244834656],["▁prins",-10.509894256048671],["▁schiet",-10.509937651804398],["▁Har",-10.510086247777933],["▁dagelijks",-10.51063450668438],["▁vrijheid",-10.511059191951762],["▁duur",-10.511285415406526],["▁slok",-10.512841654851124],["▁tent",-10.513506636261305],["▁team",-10.51402533052054],["▁voorzien",-10.515164053404131],["slag",-10.51524881802794],["binnen",-10.516002159103648],["▁geschikt",-10.516569403976536],["▁spreekt",-10.516784162225727],["dansen",-10.51704311839332],["overleden",-10.517682589127151],["▁basis",-10.518775194702815],["▁vrees",-10.5191863889372],["Precie",-10.519579820658874],["▁verlies",-10.521260522991696],["gebaarde",-10.52144683957701],["draaide",-10.521625056697443],["ber",-10.522463003423985],["goed",-10.52261429787223],["maakte",-10.523485437905416],["noorden",-10.52420102629126],["redenen",-10.52420744570488],["Gaat",-10.524677112812276],["▁flauw",-10.526808904108243],["▁schoonheid",-10.52752221368468],["vermoorden",-10.5277870276473],["▁Man",-10.528979201777243],["Vertel",-10.53106918543448],["▁storm",-10.531954350225469],["dienen",-10.53440486625279],["▁Rhodan",-10.535099394743533],["▁onbe",-10.535314966029055],["▁hel",-10.535474190050024],["ruimte",-10.535612818784204],["Wacht",-10.535638385658348],["▁uitzicht",-10.535684327363612],["▁Hans",-10.53661402079697],["▁ontspannen",-10.537314809643718],["verkopen",-10.537385941272296],["▁Onze",-10.53789247006725],["voorlopig",-10.538159248443757],["gedood",-10.53880642858307],["▁hut",-10.53883129595497],["▁bal",-10.5392857962708],["▁knap",-10.54158502007749],["rij",-10.542081518839684],["Moet",-10.54218152487771],["▁nachts",-10.54233255697915],["▁dieper",-10.542484658354144],["▁Ko",-10.542959717100782],["▁gezellig",-10.543624259987654],["▁Carl",-10.544187404080276],["▁Julia",-10.54448370705015],["▁uiterlijk",-10.54477657673804],["ontdekken",-10.545498583797595],["ans",-10.545765368914248],["▁haven",-10.546401969759613],["▁Con",-10.547377735131434],["Zou",-10.549953798668785],["lukte",-10.550215759495067],["▁stand",-10.550978151281498],["realiseerde",-10.551123658802275],["▁gestalte",-10.552036112428736],["zelden",-10.552212889779849],["▁So",-10.553718013425254],["▁privé",-10.554008579117246],["▁Jane",-10.55408184445595],["▁landen",-10.554464287165736],["▁kranten",-10.554668832055672],["bedankt",-10.554938916273231],["plekken",-10.55562032754083],["▁poort",-10.556531493603346],["▁Lo",-10.556534268517996],["▁trouw",-10.55681642227918],["▁graf",-10.557591280182194],["klemde",-10.558239700661964],["▁periode",-10.55866258664899],["ullen",-10.559719856460829],["▁beval",-10.559853793733163],["▁geboorte",-10.56047551150721],["▁leden",-10.560499754341272],["hand",-10.561477563248369],["▁gewoonte",-10.562518248753],["verlangd",-10.563030812635796],["ou",-10.56316543504621],["missen",-10.563525481249288],["geregeld",-10.563668815454696],["▁golf",-10.56419834842517],["▁Or",-10.564655193322295],["▁duim",-10.56465837386216],["▁klok",-10.565436728333545],["▁centimeter",-10.565486631030549],["schap",-10.565524777435504],["gegooid",-10.565767078300585],["▁welk",-10.565978302137076],["oudste",-10.566167701570096],["jasje",-10.566326860441745],["▁duizend",-10.56773354989089],["gisteravond",-10.56789567145755],["ston",-10.569105166461968],["▁Per",-10.570153086851226],["▁stok",-10.570160194337378],["amper",-10.570293562257405],["▁moeders",-10.570380455057308],["reizen",-10.570438062834343],["▁opgewekt",-10.57075244413742],["▁tijden",-10.571815003993454],["hopen",-10.573040448772174],["keus",-10.574729109995218],["▁menselijk",-10.57520325354624],["▁belachelijk",-10.57633436069737],["▁arts",-10.576748258561668],["▁flat",-10.577004438088112],["▁algemeen",-10.577314810077016],["que",-10.577368226074755],["▁schepen",-10.578043905061303],["nam",-10.578705180588216],["▁gebeurtenissen",-10.579264370307898],["alverwege",-10.579819711594032],["met",-10.58009293610636],["▁grijs",-10.580317855069582],["vulde",-10.581121905501387],["netjes",-10.581413865162984],["▁regels",-10.582142129289958],["▁heus",-10.582200599745354],["zak",-10.582371584840043],["▁Kan",-10.582633839044878],["Bedank",-10.583135519998397],["trof",-10.583400212073318],["mand",-10.58361967167271],["▁elf",-10.583902221831725],["▁Ka",-10.58393175748979],["▁knappe",-10.58464692090492],["▁stijf",-10.58469397588446],["tellen",-10.58563421494715],["stierf",-10.586560778086316],["straat",-10.58674530430101],["▁Weet",-10.587118570304291],["▁Jenn",-10.5872944747965],["▁Matt",-10.587325351003663],["gekend",-10.587351508188114],["▁betekenis",-10.587680170520406],["leveren",-10.588500024966482],["▁Verder",-10.588700622887458],["▁staart",-10.589464761107816],["gang",-10.589489821264344],["Kan",-10.589896597509748],["▁doos",-10.59002244970482],["harder",-10.59068445901193],["▁keuze",-10.592515857764209],["▁nader",-10.592799995420494],["▁kleuren",-10.593598218233849],["ach",-10.594042320240092],["bedoeld",-10.594621194497204],["zakte",-10.595276329967373],["▁vervelend",-10.59586185794912],["▁beslissing",-10.596085481379204],["▁schreeuwen",-10.596707184016664],["reageren",-10.59674402297941],["▁dames",-10.596839718268104],["▁Emil",-10.598006203680086],["▁inspecteur",-10.598502397101896],["bewegingen",-10.599553153574842],["▁actie",-10.59994626776303],["stellen",-10.601948667558688],["geschrokken",-10.6023065517059],["▁wens",-10.602441555485502],["▁verzameld",-10.602560018882464],["▁vuist",-10.602991873199402],["gestopt",-10.603507098551065],["▁overhemd",-10.603887587264325],["▁touw",-10.604110030795889],["▁veertig",-10.604187199246423],["reikte",-10.60436258228174],["▁Malk",-10.604522439690587],["waarvoor",-10.60476664508927],["▁zekerheid",-10.604969847905911],["▁kruis",-10.606073081105706],["nerveus",-10.6063984739525],["▁generaal",-10.607114152927508],["▁Niets",-10.60733587242336],["▁massa",-10.607527827432206],["ommige",-10.60798685489865],["veld",-10.608213149410382],["▁wond",-10.608591143145487],["Mooi",-10.609283330836728],["▁gered",-10.609756057459595],["▁Street",-10.610522580284568],["▁schuin",-10.610657307562333],["zie",-10.611221510274964],["▁Marie",-10.611857811811856],["▁agenten",-10.612322094232823],["▁vertrouwd",-10.612394702182568],["▁onzeker",-10.612911790512234],["▁Ra",-10.613828002053042],["▁Adam",-10.61396797001736],["geleverd",-10.614415461798716],["water",-10.615442501422844],["Blijf",-10.61552275121502],["genoegen",-10.615811555110488],["▁Laura",-10.615967367250558],["sterker",-10.616245913578732],["▁Anni",-10.61678609032859],["toonde",-10.617035738350973],["▁blonde",-10.617293792517552],["▁Denk",-10.617809709749736],["▁hoogste",-10.617895598845331],["▁glad",-10.61935048512837],["▁enthousiast",-10.620507336727847],["▁wolken",-10.621558616102131],["Was",-10.62164851893872],["▁stoelen",-10.621867786820218],["▁kou",-10.622791190841529],["▁geweer",-10.623107901862731],["▁Ali",-10.623669568284726],["▁tekst",-10.623938982625893],["▁Willem",-10.624390037607029],["eraard",-10.62447485726368],["details",-10.625749377617131],["▁ho",-10.626320599110764],["▁ongerust",-10.626404521323323],["verward",-10.6267719649923],["▁doods",-10.627640843006864],["zijn",-10.627829507112496],["▁klas",-10.627848890288238],["geïnteresseerd",-10.628054230666802],["kreunde",-10.628168409241717],["▁kosten",-10.628365563725852],["zingen",-10.629173612664646],["Over",-10.629248495943653],["▁speciale",-10.629551115693827],["▁gedeelte",-10.62959761880414],["▁hitte",-10.629838942131554],["streelde",-10.630116887935186],["overkant",-10.630924547872736],["kleden",-10.630983365346154],["▁medelijden",-10.63118816288856],["▁Go",-10.631322838095754],["gewoonlijk",-10.632465343774628],["▁vermoeid",-10.632543480931114],["▁Amerika",-10.632915714632237],["eur",-10.633730840235886],["tekenen",-10.633905667755345],["▁troost",-10.63393194856933],["gesneden",-10.634639126367125],["affles",-10.635870384437151],["▁kasteel",-10.63589424093438],["▁oplossing",-10.636347419757112],["▁Grote",-10.63656784449928],["▁San",-10.637770863703144],["▁stemming",-10.639030389651609],["mon",-10.639270415523926],["▁Jean",-10.639459032431532],["▁Naar",-10.640656900881332],["gedraaid",-10.64115213381169],["ius",-10.641726232864844],["▁Eva",-10.64250358654876],["▁redelijk",-10.64273506409841],["▁Hal",-10.64303245719786],["▁Jim",-10.643269466784671],["▁behandeld",-10.644334195480177],["▁blote",-10.64466766211178],["▁bloot",-10.646107527085636],["▁Jezus",-10.64627210272316],["kloppen",-10.646614935147458],["geen",-10.6467021550086],["zuiden",-10.647040479981872],["zilveren",-10.64747084712749],["▁angstig",-10.647687870181866],["▁Ru",-10.64852576752481],["▁lui",-10.648683416572911],["▁boeren",-10.64870711449073],["vormde",-10.649063052156302],["poos",-10.650541651394043],["▁Frankrijk",-10.650654119776744],["achtig",-10.651019202583036],["verschenen",-10.651091982580722],["▁Du",-10.65152563685143],["▁cel",-10.652120435690392],["Elke",-10.652130343619593],["vin",-10.652298919724496],["▁zwakke",-10.652560587630475],["▁geluiden",-10.653116592410765],["▁grootvader",-10.653551865539908],["▁kinder",-10.653795785807905],["▁geheugen",-10.65385268557502],["ergste",-10.654523339173776],["▁zó",-10.654690712487753],["▁Kijk",-10.65488388003361],["tevoren",-10.654899820399848],["▁ouwe",-10.654970428231938],["▁ontmoeting",-10.65502019747417],["▁straf",-10.655470091659822],["og",-10.655791038539212],["wenste",-10.656431430574235],["▁zenuwachtig",-10.656892949622645],["dwingen",-10.657504492769291],["▁paste",-10.657538605770196],["`",-10.65777350936735],["▁mijnheer",-10.658026303490486],["▁An",-10.659248580841592],["gesloten",-10.659300346281208],["vel",-10.660710767518632],["▁Alic",-10.662305117848137],["▁glimlacht",-10.663985322330518],["▁emoties",-10.66411775731925],["▁Miss",-10.664409158643728],["▁Grace",-10.664451558134688],["▁natte",-10.66461327333946],["mans",-10.66476506967485],["volle",-10.665880057623683],["gevuld",-10.66595993150912],["▁hoed",-10.666455655933538],["▁officier",-10.666991256868222],["regelen",-10.66731943217011],["▁Anders",-10.667920236857135],["▁Si",-10.667978547103218],["ijn",-10.668194415391971],["▁ha",-10.66827391017638],["Luister",-10.668290861858113],["▁minste",-10.668630800063152],["▁boerderij",-10.668931959552175],["eentje",-10.669492652655922],["tublieft",-10.670256521780528],["▁West",-10.671387889090644],["▁Rachel",-10.671982566385898],["huilde",-10.672358740372903],["grijpen",-10.672496196608677],["oké",-10.672952968030192],["allang",-10.673493482001325],["▁mam",-10.67405341169245],["▁plat",-10.674255715898251],["▁geheime",-10.674347962165774],["knikt",-10.674664586466932],["▁paleis",-10.674885207170377],["knipperde",-10.67489209208335],["punt",-10.675091496015346],["boek",-10.675789568680148],["▁interessant",-10.67594631801253],["zorgd",-10.67681849440492],["Echt",-10.677858755240356],["▁drank",-10.677968275836404],["▁verlegen",-10.678455242027129],["dwong",-10.678725057240626],["gestolen",-10.679199258683605],["▁ineen",-10.68070052147222],["▁planeet",-10.681181890367151],["lachje",-10.681599993054611],["hal",-10.682018348718108],["rukte",-10.683381167368132],["▁Mevrouw",-10.683682849577757],["eten",-10.683827558897828],["▁briefje",-10.683836139765246],["▁park",-10.683897289490927],["▁schitterend",-10.684557341561447],["▁Pe",-10.684624905666723],["▁stelt",-10.685985277025033],["▁professor",-10.686289263721315],["droegen",-10.686302911955307],["▁lid",-10.68665872813087],["▁slim",-10.687313421874508],["beweerd",-10.687682388095856],["▁Later",-10.68803472979014],["▁figuur",-10.688043546484623],["▁speciaal",-10.688153104380543],["▁Mike",-10.68841123352984],["▁soldaat",-10.688643946602305],["▁Don",-10.6894700618093],["▁leiding",-10.68984637802623],["▁volwassen",-10.690282696061049],["Alles",-10.692477393932675],["▁Zuid",-10.692845408318032],["▁oprecht",-10.693015402369218],["▁tegemoet",-10.693618663543534],["kleurige",-10.693655629851389],["vlogen",-10.694606901553923],["vangen",-10.694961433067013],["▁verlicht",-10.695138574738404],["▁koffer",-10.69589581050264],["▁karakter",-10.696010542634632],["▁verandering",-10.696589909541272],["▁verbonden",-10.697132073819915],["▁kogel",-10.697409429890056],["▁Rome",-10.6979973588694],["▁minst",-10.69806778328714],["rode",-10.698250597918632],["▁jammer",-10.698595503858206],["▁Am",-10.69871405422793],["▁studie",-10.700897571377132],["▁wand",-10.701038778044223],["voetstappen",-10.701455254252496],["▁baard",-10.701515379132932],["▁Europa",-10.702055542516034],["▁lijk",-10.70222884511534],["▁streng",-10.70230332000698],["▁ongeduldig",-10.702805064404464],["▁vaders",-10.70313485926262],["▁blad",-10.703292391807883],["raakt",-10.7037204438407],["begraven",-10.705616299896832],["▁Her",-10.705950327534763],["▁ademhaling",-10.706123710284633],["▁ongemakkelijk",-10.70643278402441],["▁vage",-10.706973267226289],["▁overtuigen",-10.707029698397577],["wiens",-10.707223026540802],["bedekt",-10.707614456589775],["minsten",-10.70772932323486],["▁genoot",-10.707944386411112],["▁Buiten",-10.70828736876664],["spreken",-10.70861810674979],["▁ko",-10.709094403839394],["▁duizenden",-10.709268094937364],["▁Daniel",-10.70969682990701],["▁Ba",-10.710854831730227],["▁ontstaan",-10.711228596016127],["▁intens",-10.712183893486351],["▁pols",-10.712238548699307],["tallen",-10.712244233797655],["▁Gar",-10.712298224617468],["▁regering",-10.71264347308555],["werken",-10.71265159722124],["▁lacht",-10.713341146974685],["▁verstaan",-10.71353164556676],["▁vogel",-10.71544011058769],["Heel",-10.715932144570706],["▁partij",-10.71642414060634],["gemerkt",-10.716531224052275],["▁Leo",-10.716838351988896],["▁schade",-10.716986397451157],["staat",-10.718164638396631],["▁olie",-10.718421352839556],["▁droge",-10.719633090299103],["▁Snel",-10.7203652840791],["studeren",-10.720794673871517],["▁Russisch",-10.721570909428005],["▁veiligheid",-10.721639611550357],["▁Einde",-10.721962622846446],["bal",-10.72233815299849],["Alleen",-10.722661446196485],["heupen",-10.722733974789683],["uiterst",-10.72390764818299],["▁pot",-10.72392662573214],["▁verloo",-10.724121652537232],["▁kist",-10.724149265431992],["▁Sophie",-10.725113508213893],["▁proces",-10.725220113091146],["▁grappig",-10.725520447339148],["▁gebrek",-10.727207831705888],["▁steeg",-10.727327784682643],["Ho",-10.727397109541553],["▁kelder",-10.727681540461854],["rekenen",-10.728348803432509],["geslapen",-10.728677059357809],["▁bril",-10.72893475600726],["▁politieke",-10.728944656435427],["▁tweeën",-10.729786528839607],["▁brak",-10.731813013872705],["▁metalen",-10.732864261345672],["▁Mu",-10.733313062198675],["▁achterkant",-10.733589265827302],["▁begrip",-10.73372427222371],["ille",-10.733894690285696],["geleken",-10.734117655343908],["voorschijn",-10.734157397449192],["▁toestemming",-10.734462816827897],["volgden",-10.734919106262916],["▁inhoud",-10.735402105050946],["ings",-10.735467787226542],["▁café",-10.735619870331307],["▁genot",-10.735729425822257],["naderde",-10.736037835354317],["bar",-10.736334818768285],["▁begroet",-10.736405287773517],["▁stralend",-10.736501769106727],["tikte",-10.737367073595047],["▁kopje",-10.737386212790687],["▁kamers",-10.73781478811342],["▁krachten",-10.73863833632919],["▁Helen",-10.73873185930496],["daar",-10.73898336804492],["zijde",-10.740342297136316],["brachten",-10.740350188278676],["▁Duitser",-10.740569517528572],["staken",-10.740678914497083],["gewonnen",-10.740774474960824],["▁vriendinnen",-10.740954078367754],["▁bewustzijn",-10.742465748021743],["▁eigenaar",-10.7433677781879],["leerde",-10.74415205255388],["▁golven",-10.744315020347807],["had",-10.744537060000807],["roken",-10.745516853470903],["&",-10.745593220947406],["doorgaan",-10.746299737882394],["▁Bar",-10.747313515712785],["teleurgesteld",-10.748084030689697],["▁razend",-10.748421248490732],["▁rijke",-10.748639114941431],["Deze",-10.74925770651542],["▁effect",-10.749707959634158],["▁ongelooflijk",-10.749726483659412],["Luke",-10.749919927254268],["komstig",-10.75000476790438],["▁Angel",-10.750058871976846],["▁lijden",-10.750290748917667],["▁Po",-10.751611200481983],["verklaarde",-10.75179539503674],["zogenaamd",-10.75219451089312],["ademde",-10.753069937460916],["gewezen",-10.753366638305172],["▁leeft",-10.75432893880363],["straalde",-10.75442065307262],["mochten",-10.754537459867596],["fantastisch",-10.754582775489556],["igens",-10.75502530223216],["▁priester",-10.75515232290664],["▁Chris",-10.755396447975432],["sta",-10.755912135919218],["▁spieren",-10.75615493630056],["▁William",-10.75639190331228],["groeien",-10.756743781278896],["▁directeur",-10.757156870660811],["▁gezond",-10.757418004315248],["▁breng",-10.757448369291822],["geopend",-10.75830033126363],["▁Cor",-10.759390685918309],["brandde",-10.76053991222447],["▁normale",-10.760626860700809],["verbijsterd",-10.761239117479573],["klinken",-10.76139651597958],["▁resultaat",-10.76146447970324],["▁klanten",-10.761668752997982],["▁stopt",-10.761957597549443],["▁woning",-10.762121993215631],["▁voorstel",-10.762371669427356],["jagen",-10.762629410814874],["hoeken",-10.762712400466684],["rry",-10.762766595667722],["▁vlammen",-10.763478144680724],["▁Boven",-10.764287401534029],["▁hol",-10.764322329939189],["▁bruin",-10.764689088851211],["▁mager",-10.765494826602366],["lukt",-10.76598841226288],["▁sport",-10.766094438659264],["▁groepje",-10.76650139677811],["▁sir",-10.76704068520766],["▁sfeer",-10.76818266724871],["bank",-10.768358410091649],["▁Fa",-10.768677038562572],["mogelijkheden",-10.768928379098847],["▁afdeling",-10.768933089244632],["stak",-10.769481204056436],["jarige",-10.76948940006849],["▁klom",-10.76961054612325],["liswaar",-10.769688485446204],["▁voorbereid",-10.769799853881242],["aarzelen",-10.769998329942226],["▁ellende",-10.77023517851287],["▁eeuwen",-10.771037268585692],["han",-10.771068144746208],["▁Bill",-10.771162064887594],["ijzeren",-10.771805590574102],["▁Doe",-10.773080417526153],["è",-10.773168955240603],["aangekomen",-10.77334528874352],["▁draagt",-10.773996066770842],["▁vanzelf",-10.775152251745656],["▁Bal",-10.775264840366937],["▁spijkerbroek",-10.77597853101702],["▁rechtstreeks",-10.776442854684223],["Niets",-10.777536075752344],["erig",-10.77876053318158],["lip",-10.779880795914824],["▁vierde",-10.780035517634085],["▁Tijde",-10.780636122457812],["brupt",-10.781012268882266],["▁spoedig",-10.781421233306752],["begrijpt",-10.781960622854822],["uitgeput",-10.782642361580344],["dachten",-10.783564935254034],["▁draai",-10.784288453614534],["▁And",-10.784327832834496],["gedrongen",-10.785857933469458],["▁linker",-10.78587740161912],["▁verbinding",-10.786020384170614],["▁Tim",-10.78644114160872],["▁Mon",-10.787151356630275],["▁As",-10.787375021366042],["▁meid",-10.787780507923584],["▁bladeren",-10.789075101558774],["▁getuige",-10.789824773960015],["▁beest",-10.790608697153806],["▁merkwaardig",-10.790653174612862],["zame",-10.79152620164728],["naar",-10.79187467094952],["▁toren",-10.792192156273533],["▁schaduwen",-10.792368445494946],["vluchten",-10.792805626047928],["bewogen",-10.79381881232564],["▁verkeer",-10.794338379985648],["▁commandant",-10.794396476776182],["mar",-10.794477373213494],["▁gesprekken",-10.794816867031336],["▁war",-10.79577970615749],["stijds",-10.795981756717662],["sloeg",-10.796481147796356],["▁politiek",-10.79711320692616],["▁Susan",-10.797280391849378],["▁zusje",-10.797502663534926],["▁stam",-10.797648054179776],["sten",-10.797698836153025],["eloze",-10.798035422476676],["▁Naas",-10.798147341989196],["▁personeel",-10.798703985586654],["felle",-10.799475266580965],["Na",-10.799935915329394],["▁modder",-10.79997498962533],["▁leg",-10.800671609204922],["rijen",-10.801497983307584],["▁grootmoeder",-10.801504809101328],["▁beloof",-10.801925066260203],["kop",-10.8020347096835],["▁diens",-10.80268423912678],["bleke",-10.802772280274873],["▁wetenschap",-10.8028339103566],["kijkend",-10.802946012638852],["▁aandachtig",-10.803096108116332],["ford",-10.803294572785536],["▁hekel",-10.803847229286356],["▁speelt",-10.804465541252576],["▁Opeen",-10.80518759384537],["▁pers",-10.80722407133308],["▁koop",-10.807319214920543],["▁Mensen",-10.80767582658939],["egeerde",-10.80837731435688],["raden",-10.808916207141031],["▁honderden",-10.809711698325762],["▁gevecht",-10.809861348909784],["vrouw",-10.810110783250268],["▁markt",-10.811014994737356],["▁Louis",-10.81111052862108],["▁vocht",-10.811576001860288],["▁Stel",-10.811928701739143],["▁snoo",-10.812516395651954],["venmin",-10.813345547103117],["▁smerig",-10.81378114181508],["euze",-10.813906619172698],["▁Ne",-10.815354593363912],["broers",-10.815594401362072],["waarschuwen",-10.81591586492237],["▁Lucas",-10.815946824387709],["▁ervaren",-10.817050574087194],["barstte",-10.817132538754656],["▁Bu",-10.817248034214092],["▁neef",-10.817289693412077],["tische",-10.817320206642028],["ben",-10.817562673925773],["▁vuil",-10.81815875426068],["gedronken",-10.818435775891436],["lan",-10.819066240682496],["geschokt",-10.819330149567996],["▁geleid",-10.81944532180813],["▁stomme",-10.81990601234085],["Bij",-10.820473507776356],["|",-10.820686473205312],["zijkant",-10.820787688200475],["▁gloed",-10.82080038942833],["tuurde",-10.821091723304193],["▁ingewikkeld",-10.821503810681984],["▁Va",-10.821853079073785],["verwijderd",-10.821922978180108],["Tot",-10.82245972132248],["▁rondom",-10.822864677832165],["▁bron",-10.823248533819514],["▁Hu",-10.82325219901154],["▁toeval",-10.82439339999632],["bestudeerde",-10.824693227898194],["even",-10.82480281494294],["nietwaar",-10.826091970087187],["uiterste",-10.827022538770926],["gens",-10.828000544843674],["verdragen",-10.82813979007545],["gromd",-10.8282960110444],["▁vergeet",-10.828756121985917],["▁kale",-10.83043076440735],["▁terras",-10.831158771352491],["▁Sch",-10.832272178376495],["▁voorbeeld",-10.832817759691716],["stil",-10.83288624030312],["ick",-10.832891756386102],["▁evenwicht",-10.834127955645595],["gemist",-10.834435347527773],["wereld",-10.834479021541316],["gegroeid",-10.834479238353415],["▁deken",-10.834544002389467],["▁uniform",-10.835037126086434],["▁bibliotheek",-10.835119672461945],["treffen",-10.836205114414469],["onderzoeken",-10.836714079899174],["▁Jacob",-10.837718224094916],["▁kwartier",-10.83803669805532],["naast",-10.838110512115072],["aten",-10.838374991244336],["▁toestel",-10.838399132926838],["▁Do",-10.839123340261697],["▁takken",-10.83927856403564],["▁nood",-10.840205988891706],["breekt",-10.84028544309215],["▁diepte",-10.84073701112409],["]",-10.841285474771349],["▁mo",-10.841563954513624],["▁gast",-10.84199173811302],["ang",-10.842148664389956],["gebroken",-10.842468944835426],["ziet",-10.842923113410649],["▁Duitsland",-10.84299610592994],["▁rechercheur",-10.843145254955306],["▁steekt",-10.84514443196354],["▁Moeder",-10.845185753497049],["haastte",-10.845400051931028],["▁vriendschap",-10.84572891387436],["▁Val",-10.845736315171465],["drijven",-10.846230117667377],["vormden",-10.84641493681502],["snauwde",-10.846813394706484],["bracht",-10.847505530190055],["▁Gra",-10.84810868415988],["slaagde",-10.84877192756139],["▁maaltijd",-10.84909083824434],["elijke",-10.849765209220566],["geplaatst",-10.850405991906998],["plaats",-10.850823860574158],["▁lawaai",-10.850866046683636],["▁Th",-10.851433016486842],["▁ontsnap",-10.851489934361483],["▁vergeven",-10.85149732030021],["dig",-10.85187003451668],["vankelijk",-10.852033331922074],["isten",-10.852080940846886],["▁verdrietig",-10.852919965373696],["▁Sir",-10.853029146804602],["▁Lisa",-10.853551768444218],["▁Vader",-10.8538777726914],["[",-10.85467975501516],["▁voordeel",-10.855215970016523],["vullen",-10.85530937021427],["▁miste",-10.85544022302987],["▁Elk",-10.85598922375372],["▁vastberaden",-10.856405669866534],["wijzen",-10.85714436691492],["▁automatisch",-10.857241601568663],["ogen",-10.857519548756075],["▁toegang",-10.857825988952325],["▁uitgebreid",-10.858052655969075],["afgesproken",-10.85875367378392],["▁beslag",-10.859217525832385],["eft",-10.859251925010373],["▁uiteen",-10.85981786958913],["▁gegevens",-10.861363578667678],["liet",-10.861393952137371],["idioot",-10.861468620118387],["▁grot",-10.86151884907454],["gewild",-10.861638824681677],["spel",-10.862017044986876],["▁Mal",-10.862255381463084],["▁wegen",-10.86230916904108],["▁Maggi",-10.862609375721757],["▁overhandig",-10.862831234130836],["verdienen",-10.863500805226453],["sprongen",-10.864726337643306],["trilde",-10.864802803952916],["▁schot",-10.865874853805874],["▁Noord",-10.866131955539458],["▁planten",-10.866144499061877],["bespreken",-10.86644972290581],["gehangen",-10.86648019006214],["dadelijk",-10.868041677329854],["▁gilde",-10.868163037860883],["▁Brits",-10.869119756070765],["▁gordijnen",-10.87019925859206],["dergelijk",-10.870783526189848],["lichamen",-10.8721821739365],["▁station",-10.872199521152426],["ü",-10.872277385214216],["▁gebouwen",-10.8730993902575],["noemt",-10.87353613266569],["Claire",-10.873678643743684],["▁Cal",-10.873699178477263],["▁graaf",-10.874656151523064],["▁Late",-10.876154300017516],["verdiende",-10.876563809708696],["▁Kat",-10.876866093053598],["dodelijk",-10.877159043630126],["▁opening",-10.877331091743],["▁goden",-10.877535789337877],["▁bl",-10.877591712870036],["▁aanraking",-10.87777805509661],["▁rede",-10.87794084800221],["▁laarzen",-10.877979813129702],["▁buren",-10.87811985005821],["▁Eric",-10.878244339594016],["▁bijeen",-10.878309213899874],["schoon",-10.878355078556686],["▁welkom",-10.879359564834012],["reeks",-10.879960742281057],["▁chef",-10.880549255669308],["▁personen",-10.880775117780114],["ell",-10.880893658278678],["apparaat",-10.881108036581818],["▁bouw",-10.881172542049944],["lig",-10.881232097969832],["▁belofte",-10.881773934943205],["dienst",-10.88217240265836],["▁conclusie",-10.882331711580518],["glimlachen",-10.882386313895024],["▁rot",-10.882609801082204],["cho",-10.883169601529572],["▁pro",-10.883620679835389],["▁militaire",-10.883832342541442],["▁minister",-10.884127807015409],["▁kolonel",-10.8850454344395],["▁compleet",-10.88507602019722],["▁geduld",-10.885335643079044],["▁Brand",-10.885606790704948],["zochten",-10.88584343361233],["▁verwarring",-10.885959684784543],["▁wensen",-10.886159800633711],["▁tenen",-10.886223564730084],["sloegen",-10.886787091280036],["logisch",-10.88685562969412],["geslaagd",-10.886945248514422],["lokken",-10.887178000330072],["▁schijn",-10.887956665328923],["▁vieren",-10.888105857346256],["lyn",-10.888531870545146],["▁aarzel",-10.888768155338015],["▁Eve",-10.889017940350609],["tamelijk",-10.88915885586037],["▁Vol",-10.889225693268113],["werpen",-10.88927863303708],["Alsjeblief",-10.889341120117711],["stra",-10.890274133216645],["plaatselijk",-10.890449147802606],["strakke",-10.890887612647566],["helpt",-10.89139690125287],["bus",-10.892448673186976],["▁koos",-10.892490167566068],["well",-10.892521526583357],["zon",-10.892924894237524],["twijfelde",-10.894886572394164],["▁operatie",-10.895117224663746],["durven",-10.895429566636144],["▁vogels",-10.895512035464982],["moeilijkheden",-10.896421160402983],["woog",-10.89664857372812],["gewacht",-10.897315742921672],["dagen",-10.897650780622795],["lucht",-10.897813638780631],["▁volgt",-10.898079119996256],["▁veranda",-10.89933810287196],["ruimen",-10.89987612703126],["▁oever",-10.900203455193722],["blies",-10.900416343582624],["aren",-10.900594617876587],["▁begrafenis",-10.900764754145635],["▁Fred",-10.901051699633651],["▁wanhoop",-10.901100826669344],["▁hoorn",-10.90131458460505],["▁con",-10.902924330520332],["▁schuur",-10.903220519404462],["dacht",-10.903557226984606],["igheid",-10.9038727893282],["▁tonen",-10.904047871374576],["band",-10.90443649394188],["Tony",-10.90490590845888],["▁bocht",-10.90534910752822],["▁dossier",-10.905501532534943],["▁garage",-10.905585619931824],["mooiste",-10.905895883792189],["▁wraak",-10.906905808622197],["uitleggen",-10.90694892626128],["opgemerkt",-10.907489108843],["▁gewond",-10.90781419573104],["▁pik",-10.909218675257792],["▁ideeën",-10.909307661573395],["▁gevolgen",-10.909309981550669],["▁jaloers",-10.909653616268544],["stad",-10.909663842266577],["gerekend",-10.910190200636366],["gedreven",-10.910549909673176],["▁Ren",-10.911085113000125],["▁artikel",-10.911192655421392],["▁dure",-10.911200783896826],["raakten",-10.91135019709206],["telefoontje",-10.911644657812449],["uist",-10.911738478179752],["gevonden",-10.91230510049751],["▁aller",-10.912339370181938],["malen",-10.912551462547077],["▁Su",-10.912722008155749],["▁weder",-10.913010960066115],["▁boer",-10.913082779847237],["wandelen",-10.913339548332956],["oeizaam",-10.913388477135255],["trillen",-10.913561012856118],["▁boodschappen",-10.91455623305016],["▁metaal",-10.91470745441971],["▁Samen",-10.914881748241037],["▁gemeen",-10.914958342339975],["▁carrière",-10.91589775687607],["dringend",-10.91617348164145],["▁huisje",-10.916189406608812],["▁envelop",-10.916222636958492],["▁centrum",-10.916243643795136],["Aan",-10.916335820081162],["▁Elizabeth",-10.916415011628455],["▁Zelf",-10.916645019523216],["▁gelaat",-10.917166589822116],["smeekt",-10.91743325497858],["rood",-10.917649951715385],["▁verzet",-10.918023881523377],["▁vaart",-10.918751245698669],["▁levende",-10.91879567084864],["▁heilige",-10.918892008240771],["à",-10.919064199006462],["▁westen",-10.919311862040594],["▁grimmig",-10.919656996123928],["voegen",-10.919756095420489],["▁vet",-10.919825187324896],["▁Rob",-10.920447200935232],["▁verspreid",-10.922498409551386],["▁schuil",-10.92254721308386],["cker",-10.922549910023596],["▁mantel",-10.922743365018556],["pogingen",-10.923021638270749],["▁lage",-10.923142018301895],["▁Theo",-10.92325272244859],["▁vers",-10.923453628534494],["▁omring",-10.923511243610363],["▁verrade",-10.92365531229366],["▁universiteit",-10.924668521544415],["manieren",-10.924693362928528],["▁Edward",-10.92473340906726],["nderdaad",-10.925089068606043],["▁lichten",-10.925432815240336],["ica",-10.925942697464004],["▁Verenig",-10.92619704570902],["▁genade",-10.926603278065183],["duurt",-10.92661308758298],["deel",-10.926680281873557],["▁doch",-10.926688829561977],["▁woestijn",-10.92713241074983],["▁rechterhand",-10.92724067182252],["▁achterna",-10.92776668496358],["▁hof",-10.928137769983993],["▁woon",-10.928373784226526],["▁onzin",-10.928717069178877],["▁wal",-10.92896906251018],["▁vermogen",-10.929059953165703],["▁schilderij",-10.929889343582923],["spande",-10.930022603323346],["erom",-10.930361587911651],["▁Hi",-10.930740930468916],["spraken",-10.930931767141512],["▁trof",-10.931120761949296],["Probeer",-10.93113620109525],["▁rapport",-10.931259618866855],["▁zijden",-10.93212480173838],["stemde",-10.932575357305652],["toon",-10.933237664201837],["Zij",-10.933286419433507],["snijden",-10.933798192011253],["vinden",-10.93409531908357],["▁pakje",-10.93464663646938],["▁monster",-10.935994417095923],["▁feiten",-10.936237113586143],["▁pauze",-10.936905378205086],["▁verboden",-10.937080631290224],["▁Lu",-10.937369112713698],["herkennen",-10.937682659435437],["vertrouwde",-10.937763580723027],["▁rollen",-10.93987823993512],["Welk",-10.94048962320504],["▁koele",-10.940687956743004],["wit",-10.941692446397232],["▁doorheen",-10.943211709499629],["daalde",-10.943648366358367],["stand",-10.944314036957348],["elen",-10.9449450523446],["▁lamp",-10.945890374234796],["tafel",-10.94613670582646],["▁Nederlands",-10.946265280906598],["▁wezens",-10.94703017568453],["▁drugs",-10.947305969810396],["▁Ke",-10.94815528833827],["▁pap",-10.948691694496976],["▁hersenen",-10.949286103222816],["▁Zeg",-10.94945097810186],["blijken",-10.949699317487632],["▁verslag",-10.94996768665274],["▁studenten",-10.950056555139092],["▁patiënt",-10.950093684472996],["▁zonlicht",-10.950360643322472],["▁Tijd",-10.950603276897644],["▁beza",-10.951167294503298],["▁slachtoffers",-10.951306197183404],["plekje",-10.951349575118776],["nog",-10.952073580928907],["getekend",-10.95210322312415],["▁zenuwen",-10.95244178544428],["▁beroep",-10.95301015993284],["leden",-10.953772672035848],["▁zondag",-10.953870930387591],["▁schedel",-10.953969324082216],["▁feite",-10.95473706145626],["▁partner",-10.954959640203054],["▁Marcus",-10.956025370066785],["zette",-10.956065083526015],["tegendeel",-10.957184203070868],["▁commissaris",-10.957672528411468],["▁kerst",-10.958071312039715],["The",-10.958225275070593],["▁landschap",-10.958614712354688],["▁project",-10.958900985852027],["zwemmen",-10.959151614635156],["▁stoep",-10.959325110675156],["▁letterlijk",-10.959721909786134],["▁ontwikkeld",-10.959765683422887],["momenten",-10.959930569919967],["▁Julie",-10.960258879856328],["Ma",-10.961110732923803],["aat",-10.961411154218714],["▁revolver",-10.961497601373528],["▁Wolf",-10.963343613972524],["▁passagiers",-10.963574969072576],["▁Kun",-10.96371539103688],["velden",-10.963811111394808],["bak",-10.963898084423388],["▁verklaard",-10.96468201285041],["▁grap",-10.965172042971856],["▁bloem",-10.9652788455334],["▁bruiloft",-10.965303429300322],["boven",-10.966202748412664],["▁Gu",-10.966436451299629],["lijkbaar",-10.966709737148433],["bezoeken",-10.967361452228234],["vouwde",-10.967508186017792],["verstopt",-10.967549333575157],["▁slap",-10.96756386384974],["liggende",-10.96760118881137],["▁programma",-10.967604330563947],["▁gevoelig",-10.967938147489734],["▁gas",-10.968301599666544],["▁schaamte",-10.96832273622622],["gedeeld",-10.969325401432714],["ië",-10.969573298366798],["▁Kon",-10.970047705292789],["▁gevangenen",-10.97073213030026],["▁magie",-10.97148739052221],["neiging",-10.971720263399748],["stortte",-10.971782819084234],["▁onverschillig",-10.971820245543404],["▁Staten",-10.971882097255795],["▁Ellen",-10.971947466215571],["▁stal",-10.972489992354587],["landde",-10.97277800396182],["▁Mag",-10.97323770611851],["▁waarschuwing",-10.973538005428646],["ertoe",-10.97376556213121],["▁vuisten",-10.9738295358764],["▁help",-10.974629741907876],["▁overleven",-10.975455090474272],["schraapte",-10.976328128643988],["che",-10.976969612235386],["schip",-10.977798430493944],["▁bescherming",-10.97791763778537],["▁moderne",-10.977960539569358],["isme",-10.978226847078904],["▁Olivi",-10.978706258785412],["pot",-10.978906662854284],["▁Charlotte",-10.979176555702786],["▁Nooit",-10.979462270594633],["▁zestig",-10.980732002364569],["▁koken",-10.980896263795431],["ther",-10.980963789163006],["▁interesse",-10.98124448575966],["meerdere",-10.981493124217977],["▁Spaans",-10.98191773671225],["▁rotsen",-10.982379359307936],["▁getuigen",-10.982445991003516],["huiverde",-10.982924413832183],["bewaren",-10.9836582033338],["▁hartelijk",-10.983852423367948],["▁kaarten",-10.984878179410794],["▁Ter",-10.985982697469211],["▁zelfmoord",-10.98717586304812],["▁boze",-10.987505624370206],["stootte",-10.987732396251271],["▁whisky",-10.987742536007891],["verklaren",-10.988149541243745],["eindje",-10.988673335678897],["uitgesproken",-10.98867756931648],["▁Ken",-10.989040217740888],["▁beker",-10.989802539213285],["▁voorkeur",-10.990301844123096],["▁bot",-10.990553743032873],["meester",-10.99064697845751],["▁helling",-10.990738163918692],["▁dun",-10.990784542919451],["▁dubbel",-10.990826090377055],["▁Ju",-10.991036309642716],["grijze",-10.991159279262094],["chi",-10.991586389420384],["▁verjaardag",-10.992033447263871],["huidige",-10.992171154661987],["í",-10.993504258457168],["▁zilver",-10.993626642073872],["rot",-10.993635977049408],["▁opge",-10.993977314337414],["▁Mel",-10.99420812869371],["▁koers",-10.994214816457877],["▁Erik",-10.994262252852424],["▁saai",-10.994444372274447],["nachten",-10.994454866303183],["zaak",-10.995360674439857],["ders",-10.995486997691142],["▁aanbod",-10.995608514406529],["diverse",-10.995690592698656],["▁uitgestrekt",-10.996230124246605],["▁Bi",-10.996795769960745],["post",-10.997176934543916],["▁varen",-10.99727698947676],["zaal",-10.998278980239762],["vijanden",-10.998731151305757],["▁Morgen",-10.998938686838343],["telde",-10.998949755174795],["art",-10.999603834617462],["▁Gi",-10.999773785546024],["▁dapper",-11.000066422562137],["▁Brad",-11.000356440464849],["▁bak",-11.001864085597722],["handelen",-11.001878597894487],["▁vliegveld",-11.002189223301528],["niet",-11.002338691420396],["▁verslagen",-11.002690156347208],["▁kwart",-11.002909011637088],["vers",-11.003892288458534],["▁pan",-11.004321008015994],["▁schaal",-11.004381966787085],["▁Bas",-11.004937917134292],["▁bevolking",-11.00518533379258],["▁jongetje",-11.005229446593782],["wanden",-11.005329342140984],["dreigde",-11.005390967300604],["▁Tussen",-11.00561673029127],["▁schone",-11.005864940667037],["Zeker",-11.006177516819546],["▁zadel",-11.006499074156864],["con",-11.006911079720382],["verschijnen",-11.007666839979557],["▁wél",-11.009027647261185],["▁hap",-11.009297769644194],["reed",-11.009785723645104],["▁protest",-11.00995603724532],["▁verdacht",-11.010117183691811],["▁zuiver",-11.010520501868736],["tocht",-11.011176936007042],["▁Danny",-11.01126741892655],["▁heuvels",-11.011332665475598],["behoorde",-11.011386002812957],["God",-11.01199469599088],["rijdt",-11.01250838873812],["▁hees",-11.012690845646905],["▁broeder",-11.01303764725991],["▁Dor",-11.013448368888758],["concentreren",-11.013498647659302],["ó",-11.0136949490302],["▁lichamelijk",-11.014094108348669],["klonken",-11.014315139863934],["ric",-11.014643218465508],["▁trappen",-11.014838891434282],["▁Lee",-11.014840964683009],["▁Hem",-11.01549823741467],["▁onderscheiden",-11.015618141852872],["▁doo",-11.015726031390548],["bedekte",-11.015907621445631],["▁plein",-11.01611119218451],["▁goeie",-11.01631721989094],["heer",-11.016878374774937],["gehoopt",-11.017422393121269],["Zal",-11.017446761721365],["▁letters",-11.018309364354762],["▁dubbele",-11.01833465424115],["▁Land",-11.018605873436066],["▁Sal",-11.01873632453782],["▁toilet",-11.019350874310213],["▁Echt",-11.019682839672972],["sloot",-11.019811889639271],["▁fraai",-11.01985776293117],["▁onver",-11.02012414095592],["deelde",-11.021297035531116],["▁overdreven",-11.02141134259148],["hoe",-11.021467692190967],["stel",-11.022624633890452],["▁Michel",-11.02312190335584],["Vind",-11.023378213053698],["duiken",-11.02377260397726],["▁intelligent",-11.023787461911196],["▁pond",-11.023954582944246],["▁fijne",-11.024596229651117],["rol",-11.02493121939103],["▁Ray",-11.025550678118236],["lukken",-11.02567634214661],["▁slaven",-11.025743437012997],["▁luister",-11.025921778922545],["▁Tri",-11.02715081296253],["▁vurig",-11.02806512955813],["tenzij",-11.028285157302742],["geduldig",-11.028601146556325],["▁Wa",-11.029074745227511],["meer",-11.029445279100967],["rijke",-11.029778702164611],["▁vleugels",-11.030097718386791],["gleden",-11.030248393164582],["▁opzichte",-11.03063073617884],["▁Patrick",-11.03063200423449],["▁boel",-11.031467329287452],["gejaagd",-11.031861268698924],["arm",-11.03189913251328],["geworpen",-11.032211541372323],["peinzend",-11.0324287771892],["beeld",-11.03262761735479],["▁super",-11.033332675146308],["afgesloten",-11.03338342369018],["aire",-11.033720323406952],["▁bovenste",-11.033939827928725],["▁leider",-11.034040199369915],["Naar",-11.03469603737746],["▁internet",-11.034871590123943],["storten",-11.03513407425138],["▁Hoog",-11.0355259274018],["bukt",-11.036365197694872],["dalen",-11.036474240117505],["▁Carolin",-11.037158871124092],["out",-11.037160902205432],["▁degelijk",-11.037284495332331],["▁duivel",-11.0375335434866],["stromen",-11.038274088814909],["▁nagels",-11.03833370594456],["bedrag",-11.038825708442426],["optreden",-11.039259528246747],["▁plicht",-11.039320768186965],["▁fantasie",-11.039373066933956],["▁middelbare",-11.04013039260334],["ong",-11.040253680411649],["▁zoekt",-11.041650544468723],["▁misselijk",-11.041934410562249],["Hebbe",-11.042041819625751],["vroeg",-11.04211851533946],["▁banden",-11.042374637007889],["▁Fi",-11.042482666556207],["vervangen",-11.042758426916148],["wonden",-11.042802774909951],["moe",-11.043368127641648],["▁maat",-11.0440707622766],["▁steden",-11.044192469277608],["uitgenodigd",-11.0442607613382],["▁verscheiden",-11.044686392299738],["▁teleurstelling",-11.045368074451456],["▁losse",-11.045488271825032],["▁stukjes",-11.045934270236105],["▁kern",-11.045946688703904],["hu",-11.046020010302968],["gescheiden",-11.046537939874849],["▁tempo",-11.04668520630713],["▁Ki",-11.046910511200004],["▁Kort",-11.046912909635004],["systeem",-11.047030283040232],["wekken",-11.047490741012767],["▁onrustig",-11.04785696019604],["all",-11.048086513121016],["▁zaterdag",-11.048140319930564],["vriend",-11.04851939205857],["cher",-11.04875802049344],["aangeboden",-11.048872747090298],["▁Tu",-11.049077059576875],["▁leed",-11.049090524707982],["ich",-11.049562394315677],["duwen",-11.04982545185078],["Tja",-11.050475633379984],["▁geheimzinnig",-11.05078844109432],["▁horizon",-11.051623973702911],["▁Han",-11.051948260673766],["lie",-11.052273579042197],["wijst",-11.05240760345825],["ville",-11.052460082580982],["▁patiënten",-11.05267003069682],["▁suiker",-11.05274383570594],["▁accent",-11.052897334540582],["▁knipoog",-11.052971938788057],["▁apart",-11.053528710605931],["▁merk",-11.053814660299729],["▁Liz",-11.053841528305316],["lieden",-11.054220448624218],["▁schrijver",-11.054468832210103],["danken",-11.054772116038023],["▁haak",-11.054922963283971],["gat",-11.054994685927417],["▁diende",-11.05502110625044],["▁bewoners",-11.055044004621484],["▁Jami",-11.055067050550344],["▁Ci",-11.055330265995478],["klapte",-11.05626192925125],["▁systeem",-11.056535360032294],["▁titel",-11.05660205824944],["▁Billy",-11.0567583344055],["▁proef",-11.056876941213648],["vergeefs",-11.057345485542612],["tro",-11.057749292039311],["▁Victor",-11.057940761297182],["▁keizer",-11.058443687763074],["▁ontwikkeling",-11.058700954783404],["▁machine",-11.058729393019709],["iet",-11.05885973678808],["blauwe",-11.05935508441924],["▁wedstrijd",-11.059448845961038],["▁Bel",-11.059896810171022],["winkel",-11.06052223044113],["▁X",-11.06062030974354],["▁tunnel",-11.061199151237794],["kocht",-11.061752193180958],["▁sluit",-11.06219986513272],["▁alcohol",-11.06226296072091],["▁toneel",-11.062486575411237],["mate",-11.062692691737633],["▁riem",-11.063175801576971],["liegen",-11.06324841538078],["▁ontslag",-11.063431674885951],["oordelen",-11.063463476720491],["schudt",-11.063585489627068],["opperde",-11.064072740951216],["▁kap",-11.064459246566022],["mus",-11.064677893041427],["field",-11.065222976958696],["▁co",-11.065433515234613],["▁club",-11.06548905789953],["gemakkelijker",-11.06587271222225],["▁vissen",-11.066046347689827],["▁mouw",-11.066189198008232],["▁terugkeer",-11.066221887426472],["rijk",-11.06770374165985],["jongste",-11.068043141161647],["sneed",-11.068357692293224],["ophouden",-11.06843452176237],["▁dominee",-11.06907674951012],["▁kerels",-11.069078996351438],["agedacht",-11.069906998301484],["▁oordeel",-11.070324152585735],["rare",-11.070695825198712],["Y",-11.070775550945562],["▁oosten",-11.0709699759581],["ccepteren",-11.071054911519523],["▁Ann",-11.071102526765866],["▁traag",-11.071322308272071],["rand",-11.07177501014664],["▁Gabriel",-11.07240673170171],["bleken",-11.072411698960464],["▁beheerst",-11.072482526273983],["vergat",-11.072652443896477],["handel",-11.072681825013078],["▁overtuiging",-11.072908312809648],["▁geel",-11.07314127119941],["▁frisse",-11.073311988941242],["raampje",-11.073901931081258],["ters",-11.07399472361342],["▁diner",-11.074225515777398],["Ro",-11.074845223258809],["▁ketting",-11.075368816089616],["▁misdaad",-11.075684097173326],["▁echtgenote",-11.076058178609047],["▁doek",-11.076558847598497],["▁bom",-11.076621868622585],["▁Witte",-11.077219550323193],["menselijke",-11.077923946751834],["och",-11.07792552040858],["stoel",-11.078232814934037],["stilstand",-11.078336788602575],["▁alarm",-11.078371158172438],["▁Rya",-11.078892596181086],["maakt",-11.07890018982348],["gebied",-11.078944852864074],["akelig",-11.07922924443164],["ehalve",-11.080319263668716],["klimmen",-11.080923379475584],["leverde",-11.081483197465126],["vragend",-11.081804551344334],["pleegd",-11.081959226996064],["oog",-11.082148580561263],["▁eenzaam",-11.08294980857306],["▁lengte",-11.084000299580888],["vermoedelijk",-11.084185696823791],["▁Arthur",-11.08492208306679],["▁villa",-11.085544386663916],["▁branden",-11.0860158317665],["bang",-11.086038313988375],["▁roman",-11.086663456079773],["gewassen",-11.087218559739744],["▁binnenplaats",-11.08743872235373],["fysiek",-11.087753532015434],["groeide",-11.088168459533748],["groep",-11.088440439378548],["▁glanzend",-11.088826910024002],["▁elegant",-11.089170280306526],["bevestigd",-11.08918669053535],["stonden",-11.090273266975254],["▁prinses",-11.090825974869365],["▁buitengewoon",-11.090868440321277],["▁Albert",-11.092305077900388],["▁dringen",-11.092321915059172],["protesteerde",-11.094087080303073],["▁bevelen",-11.09436426813909],["▁schrijft",-11.094430992193672],["▁afloop",-11.094934888217503],["▁halfuur",-11.09498028103706],["▁Jimm",-11.095111979301183],["smeken",-11.09516204159378],["▁geï",-11.096358651454157],["▁advies",-11.09642248387654],["kromp",-11.096520138719006],["▁ontdekking",-11.096927766189689],["danig",-11.096955129060603],["▁teder",-11.096981580487416],["▁Tre",-11.09712284518552],["aanblik",-11.097367996408648],["verdiend",-11.097553450802556],["programma",-11.097837818428884],["raad",-11.09813576257202],["school",-11.09891391027891],["▁podium",-11.098971217351629],["kondigde",-11.09919545729287],["grepen",-11.099209491853902],["▁woest",-11.099525816604784],["stormde",-11.099608363117484],["▁champagne",-11.100107102869892],["▁Amy",-11.100293471961868],["bon",-11.101196802225022],["▁burger",-11.10185625771168],["▁praktijk",-11.102286784805251],["▁beschermd",-11.103328548037403],["▁ouderwets",-11.103542547150452],["▁cirkel",-11.10358058933415],["ram",-11.103600637485526],["▁Wi",-11.103625536689242],["gelijk",-11.103839037589363],["á",-11.104449536548575],["bra",-11.104818707075813],["▁knop",-11.10535195792112],["▁uitzondering",-11.105740428012036],["jarenlang",-11.105793296599147],["vastbesloten",-11.105871683851872],["▁balkon",-11.107004605471069],["schrikken",-11.107242846150696],["▁stiekem",-11.107461784982776],["▁lust",-11.107520961504552],["verdedigen",-11.10832594918117],["▁noodzakelijk",-11.10856066873921],["▁oranje",-11.10895708193859],["Ook",-11.109189349669863],["▁verhouding",-11.109520740516391],["▁bek",-11.109759587510988],["gestapt",-11.10989920896856],["kast",-11.11082175785166],["▁emotie",-11.111131546230496],["▁kar",-11.111207063352037],["▁kaas",-11.11164221516471],["Lily",-11.111770891693968],["blad",-11.112121749769074],["▁Smith",-11.112290765776564],["leidt",-11.112769952952425],["▁spelletje",-11.113094467333523],["▁discussie",-11.11309755816089],["▁sociale",-11.113448715120793],["▁veronderstel",-11.113692347912108],["cy",-11.114391111582126],["waarts",-11.114736055967915],["kwijls",-11.115076713919732],["▁Washington",-11.11515687912646],["loop",-11.115652264685073],["ator",-11.11574306965352],["▁combinatie",-11.11643617003477],["▁Israël",-11.11678643227816],["▁eigenaardig",-11.116911303613769],["▁september",-11.117258484225871],["▁Ti",-11.117609657083388],["▁masker",-11.117874665742626],["▁brein",-11.11864047436985],["kaken",-11.118774990750074],["▁Kar",-11.119357909718833],["boom",-11.11946617003258],["▁verf",-11.119661102510287],["▁vergist",-11.119668142972648],["▁pre",-11.119781840342654],["gekwetst",-11.120842804903583],["wagen",-11.121832840239485],["dreigend",-11.121903584547248],["beseffe",-11.121973569288192],["nieuwsgierigheid",-11.122508773296351],["▁afwezig",-11.122677095550197],["ï",-11.123545458148056],["lieverd",-11.123737038712264],["▁Ruth",-11.12458963482464],["genen",-11.124735715955818],["▁troepen",-11.125323131847358],["▁oorzaak",-11.125337506034038],["gediend",-11.126313501532124],["▁hakken",-11.126804962191034],["Amerikanen",-11.126850348701677],["▁kille",-11.127094306371212],["▁geheimen",-11.127225049376298],["▁bediende",-11.12726242869946],["bezocht",-11.127274233139063],["▁lelijk",-11.127592786434558],["▁plank",-11.128338097158167],["kleding",-11.12836748395594],["bromde",-11.128678759765949],["controleren",-11.129215432450414],["indrukwekkend",-11.129969278083276],["▁versie",-11.130003491374987],["▁tegenzi",-11.130303590981388],["▁vluchtig",-11.13039680045433],["▁wassen",-11.131213171046891],["▁nauwkeurig",-11.131264452326908],["▁struiken",-11.131302008665914],["▁Par",-11.131457681636908],["ander",-11.131545303510585],["aangedaan",-11.13240869080276],["▁theorie",-11.132620933064077],["▁klooster",-11.133415741907566],["genezen",-11.134055701175193],["besteed",-11.135088236292324],["wennen",-11.135181443822413],["▁planken",-11.135388203588304],["knielde",-11.135395679723166],["▁verwachting",-11.135483542628052],["▁tempel",-11.136156822756137],["mannen",-11.136791839087484],["▁zinnen",-11.136861784827286],["▁veiligheids",-11.137078724587736],["▁wolk",-11.13757833140082],["geknepen",-11.137600545871427],["vasthouden",-11.137852523353882],["▁hersens",-11.138473265792028],["raam",-11.138610748773427],["hoeveelheid",-11.138649595276783],["▁sla",-11.138817747439534],["▁eisen",-11.13895774053726],["kom",-11.139163469654576],["▁bewakers",-11.139334189943604],["▁Arie",-11.139769796594347],["oefenen",-11.139822290073806],["▁Bart",-11.140457384604328],["▁pagina",-11.140578986128842],["▁bol",-11.140628721532716],["▁herfst",-11.140940434692792],["kamp",-11.14164059370544],["kruipen",-11.14221535897948],["Nederlandse",-11.142336339141078],["▁stop",-11.14289718056578],["▁stijl",-11.143751353888463],["old",-11.143802905459047],["▁bezwaar",-11.144284675469446],["zeker",-11.144895182153038],["▁stalen",-11.145228883673164],["▁Hitler",-11.145239048448078],["▁verplicht",-11.145438580675734],["▁nuttig",-11.14572844625221],["▁punten",-11.146393735927855],["▁mobieltje",-11.146423810289198],["vraag",-11.146513289534347],["Andrew",-11.147439827339364],["verontwaardigd",-11.147892575860164],["▁Rick",-11.14801223345348],["openen",-11.14802790490666],["nomen",-11.14804532257157],["▁veertien",-11.148346589336482],["▁bagage",-11.148476263868629],["▁Johan",-11.1485232286369],["Niemand",-11.148667725888844],["▁opleiding",-11.148830705699114],["▁speel",-11.149215316949478],["schuiven",-11.149788240033669],["▁bedenk",-11.149968123501692],["▁handig",-11.149993018250049],["▁rugzak",-11.15016495519143],["▁middelen",-11.150278587563422],["weer",-11.150371308427864],["▁jonger",-11.150372763374172],["▁Vi",-11.150640376407976],["bestemd",-11.15087829879883],["▁Ad",-11.151151301156697],["melden",-11.15169032528801],["ä",-11.15217314633589],["grondig",-11.152573981657286],["stoten",-11.15287530262155],["▁Aarde",-11.153049345909745],["▁overleef",-11.153100658545103],["letten",-11.15340571641509],["▁vergissing",-11.153491707128952],["rend",-11.15358208241451],["▁pure",-11.153665733212122],["▁draad",-11.15367660499458],["▁botten",-11.154156821024378],["onderzoekend",-11.154725487217984],["▁financië",-11.154753932806814],["▁leerlingen",-11.154884943044223],["▁longen",-11.15496744248485],["Prima",-11.155358140091694],["lton",-11.15560902897692],["▁Lord",-11.155828256806693],["Toch",-11.15616386153502],["▁Alexander",-11.157039501595342],["▁volstrekt",-11.15709582502909],["officieel",-11.15790562820862],["▁Maak",-11.158334790831116],["com",-11.15858350153039],["▁Brian",-11.159428067685855],["gedempt",-11.159456999447755],["▁zwembad",-11.1594729677308],["ö",-11.159493428859498],["wil",-11.15957904027281],["▁organisatie",-11.159813202520368],["▁handel",-11.16007714818535],["ongelovig",-11.160193265462846],["schrijven",-11.160240380054551],["kenden",-11.160530139957354],["▁grenzen",-11.160932073407848],["▁centrale",-11.161059468686934],["▁Vlak",-11.161725615824125],["Verdomme",-11.16215450907236],["▁gereed",-11.162384290765626],["▁Moet",-11.16248858101727],["gevouwen",-11.162653174462791],["▁lip",-11.16269162596238],["trillende",-11.16291906048536],["▁billen",-11.162967933528323],["▁ellendig",-11.163048310983006],["▁parkeerplaats",-11.16324472282826],["▁oorlogs",-11.16342174930305],["▁kaak",-11.163477718106732],["gevormd",-11.163624965464267],["beschikt",-11.163673103335466],["▁dochters",-11.164002050700168],["brulde",-11.164017070860114],["▁bewondering",-11.164067215223904],["▁luitenant",-11.164338906123277],["▁bescheiden",-11.164427867140338],["cha",-11.165760981927624],["▁koelkast",-11.165808922629507],["Andere",-11.166159632601277],["ruit",-11.16626415426409],["▁Lid",-11.1663866139918],["▁gezondheid",-11.16668219919578],["erend",-11.167249973602322],["▁levendig",-11.167351495084077],["▁drukke",-11.167404282864323],["▁vertrouw",-11.167495615783835],["▁erf",-11.167829394527365],["stijgen",-11.168701820685971],["geïrriteerd",-11.168880294179823],["▁mate",-11.16892185290165],["tegenstelling",-11.169210631322118],["▁spreek",-11.169288247081646],["▁kring",-11.16964843470085],["kan",-11.169773354843834],["reden",-11.170149116274288],["spottend",-11.17048940162135],["▁valse",-11.170802797024908],["alloze",-11.171150979964452],["▁materiaal",-11.171439849495966],["schenken",-11.172043724310027],["bepalen",-11.17205882274296],["▁dwaas",-11.172335457011268],["onderzocht",-11.172593386826774],["▁handdoek",-11.17277221602826],["gretig",-11.172886919999703],["▁gade",-11.173296517566923],["flesje",-11.173331765383416],["▁zonne",-11.17336906590791],["▁piep",-11.173876549223095],["ban",-11.174092469782488],["▁vel",-11.174208066274046],["▁roep",-11.174238876484187],["▁wijsvinger",-11.174691764269255],["helsde",-11.17474112465201],["▁sigaretten",-11.1750706000843],["blijven",-11.175556732584448],["geliefde",-11.176108682310575],["▁ongelukkig",-11.176286653867365],["aanwijzingen",-11.176426810187277],["sson",-11.176707875742215],["▁gestoord",-11.176785801413276],["opgesloten",-11.176844910779868],["▁aantekeningen",-11.17697983710308],["▁slank",-11.177081845365224],["vragen",-11.177503968889326],["Uw",-11.177948584828824],["▁onderdeel",-11.1780142662002],["▁soep",-11.178443756235673],["bed",-11.178582081618076],["▁kaars",-11.178698458573257],["▁start",-11.178821720241308],["▁Cu",-11.179086484796183],["war",-11.179215410716358],["haar",-11.179525556746194],["▁vergadering",-11.179709333262748],["wind",-11.179840730122356],["▁gangen",-11.17984687517089],["▁bemanning",-11.179874265744033],["▁Groot",-11.179954763133564],["▁euro",-11.179985459042308],["laat",-11.18004030983829],["verandert",-11.180469896752562],["▁missie",-11.180992432015294],["▁excuse",-11.181247072205815],["keurend",-11.18176949892635],["▁gehoorzaam",-11.1818084568634],["liefje",-11.181832765222262],["denken",-11.18183899470998],["▁verleiding",-11.182126547860364],["geschoven",-11.18217162532845],["▁beroemd",-11.18227465178356],["▁Steve",-11.18232671865525],["▁staal",-11.182523446576182],["zakelijk",-11.182571473647796],["▁hersteld",-11.182607743191385],["meldde",-11.182655958655554],["gelukt",-11.182735662369296],["aanse",-11.184165578646766],["▁Win",-11.184169565985677],["▁dreef",-11.184464299828065],["▁verwonderd",-11.1846421641811],["▁my",-11.185039959937548],["stapten",-11.185654957013078],["▁Voorzichtig",-11.185682542673597],["trapte",-11.185978168395891],["▁media",-11.186096578540385],["▁Sean",-11.186312367577422],["hor",-11.186500370437344],["▁hy",-11.18653481978718],["beantwoorden",-11.1870539149248],["arriveerde",-11.187082032709744],["▁Bre",-11.1872802902186],["elle",-11.18764725823661],["kleedde",-11.188135919556572],["▁Vroeg",-11.189128060182757],["▁klant",-11.189199779115242],["▁koppig",-11.189350295098508],["▁Black",-11.189428053679542],["bidden",-11.18949935341018],["verzekerde",-11.189650106670458],["▁Josh",-11.190272392374776],["▁blanke",-11.190366735371308],["▁Carol",-11.190567335021376],["geamuseerd",-11.190599027451208],["▁blok",-11.190658104335652],["▁Walter",-11.19101151253997],["scheppen",-11.19113588619371],["zulk",-11.191306937469598],["▁jongere",-11.192002924282376],["▁Louise",-11.192125141199725],["geheven",-11.19262026737177],["▁Jos",-11.193016903790015],["▁lees",-11.193827038278728],["ella",-11.193948010967656],["▁anti",-11.194041792979808],["▁lager",-11.19571774163026],["lingen",-11.196034758291406],["tijdstip",-11.19628140825156],["low",-11.196319748701969],["erige",-11.196581084953532],["voorgoed",-11.197073002990926],["▁oogen",-11.197344900385287],["▁afge",-11.198197248190365],["▁siste",-11.198300103994852],["Jouw",-11.19854393167036],["kracht",-11.19868215802374],["belangrijker",-11.198957845175414],["▁blind",-11.199026732539746],["▁zorgt",-11.199251311589656],["gebouw",-11.19970336308184],["▁talent",-11.200065096737868],["reusachtige",-11.20026830876144],["▁robot",-11.200578635760795],["▁vee",-11.20073444392157],["▁betrap",-11.200838382582136],["▁Huis",-11.20102092387549],["Nina",-11.201272217770024],["▁reputatie",-11.201404588299464],["▁overheen",-11.201617544765549],["▁Vijf",-11.20182534993832],["pad",-11.202021994227929],["▁elleboog",-11.202406456323706],["vertoond",-11.202575941281005],["▁Tan",-11.20282963796655],["▁innerlijk",-11.203504487534929],["▁kilo",-11.203576278052031],["boekje",-11.203857856336288],["▁berichten",-11.204520815125042],["▁Rosa",-11.204522231496783],["▁Dank",-11.20509932489939],["Vergeet",-11.205233266254174],["zin",-11.205340051590897],["ras",-11.205422372725804],["▁bewaker",-11.205678374400522],["▁identiteit",-11.206133998431593],["gladde",-11.206554763606691],["▁Beth",-11.206608379350156],["▁mobiel",-11.20695198418434],["geld",-11.207112106901278],["▁aanzien",-11.207648842021229],["▁klank",-11.208215834490636],["Uit",-11.208216932961577],["▁opzet",-11.20845448316308],["officiële",-11.208976950687344],["▁Vier",-11.20910293712008],["voormalig",-11.209777488001192],["ment",-11.210752863228128],["▁Red",-11.210754459833876],["▁kleed",-11.210866413768002],["▁gordijn",-11.210987338435148],["▁openbaar",-11.211639809803607],["▁route",-11.21184302422039],["▁leuke",-11.211981879764489],["▁augustus",-11.212126015042664],["daag",-11.212316245791824],["qui",-11.21237611820429],["▁glimp",-11.212694140765104],["▁zakdoek",-11.2133280227048],["ruiken",-11.213589353126563],["gar",-11.21390895963661],["dringen",-11.21430103309678],["hijgend",-11.215110903570087],["▁Tien",-11.215514222642112],["▁eraf",-11.215554780991749],["▁poten",-11.215711983962615],["▁triest",-11.215776928798505],["terugkeren",-11.21604250911599],["praktisch",-11.216305150011],["tastte",-11.216914014714527],["▁bereik",-11.217030342001165],["sexy",-11.217303311918045],["▁stads",-11.21798533938641],["▁gedaante",-11.21809477682102],["▁Uw",-11.218143551352917],["▁sleutels",-11.218220982952117],["▁onvermijdelijk",-11.21837889845304],["▁handpalm",-11.218599087152407],["▁linkerhand",-11.219329449792529],["▁inspanning",-11.219945627316262],["▁behandeling",-11.220193168240767],["cor",-11.220198440112942],["▁bezoekers",-11.220855291107288],["Begrijp",-11.221019121876818],["gigantisch",-11.22130734960338],["onhandig",-11.221443310758318],["geleefd",-11.221461147570787],["▁juni",-11.223733435367578],["▁verblijf",-11.223929035189752],["▁Julian",-11.224326811360166],["▁wandeling",-11.224685082106651],["las",-11.224749083753627],["schreef",-11.225113103224812],["▁ramp",-11.225444206682395],["▁Gods",-11.225655180001327],["hout",-11.225729846825958],["bovenop",-11.225865150980486],["grapje",-11.22612774121494],["▁leugen",-11.226207575214978],["Aha",-11.226335714167138],["stal",-11.226531087358532],["▁Gor",-11.227356643996796],["▁aanrecht",-11.22761831763498],["▁Barbara",-11.228087578556217],["vloekte",-11.228340330989036],["▁krullen",-11.228461750126527],["geluisterd",-11.228691189001225],["▁hertog",-11.22870001655734],["▁bevrijd",-11.228992908047614],["▁veroordeeld",-11.229344978470412],["▁patroon",-11.229449801208588],["▁Enkel",-11.229458997215437],["stuk",-11.230324149552803],["▁Ham",-11.230463491676296],["pol",-11.23048310337139],["▁Elli",-11.230626282943136],["illa",-11.230719960009097],["cia",-11.231307766398473],["▁uitnodiging",-11.23161112488109],["aap",-11.231701131186997],["▁achttien",-11.231838234217072],["▁pijl",-11.23225145642554],["schuddend",-11.232490167989983],["▁handschoenen",-11.232639865027306],["▁zwijg",-11.232739682025292],["▁ving",-11.232868612352222],["▁Park",-11.233230945812696],["▁pop",-11.233518696166945],["mensen",-11.234056851278478],["verontschuldigen",-11.234342698789716],["▁luchtig",-11.23457210473415],["▁Kim",-11.234720433441993],["▁soepel",-11.234889800377964],["▁lente",-11.235075279406638],["huizen",-11.235079851666349],["▁opzicht",-11.235090233603335],["onderdrukken",-11.235599848635232],["Jezus",-11.235700111909042],["▁scheiding",-11.23603135297299],["Matthew",-11.236164645613195],["zakken",-11.23654160161347],["▁geesten",-11.236690686271746],["bouw",-11.236806553631652],["▁verontschuldig",-11.236813086389374],["▁luxe",-11.23739323018279],["bellen",-11.23774525395396],["▁aanslag",-11.238105588548974],["rig",-11.238853093235818],["▁machtig",-11.239031925171568],["bossen",-11.239056003414792],["elemaal",-11.239231289474647],["▁held",-11.239300484780095],["▁verbrand",-11.239486265622904],["▁gevaarlijke",-11.239820101253564],["▁sloop",-11.240083757074744],["▁bedank",-11.241010145427506],["aderen",-11.241308385335534],["▁hoogst",-11.241579833420085],["▁Saint",-11.241794400155662],["rekte",-11.241907777893523],["steen",-11.242082378769268],["glimlachje",-11.242553883978363],["▁overwinning",-11.243109665459851],["▁schrijf",-11.243228346605772],["▁Hill",-11.243964000773378],["geklemd",-11.244310100752818],["▁achterom",-11.244388234245717],["▁borden",-11.2444744523172],["hoekje",-11.244937194359656],["▁sheriff",-11.2454153842542],["▁hoede",-11.245648576431083],["bol",-11.245936775100963],["▁Christus",-11.246241549921171],["opvallend",-11.24626448200767],["▁bedrijven",-11.246561114396584],["▁Nell",-11.246585015110725],["▁Roger",-11.246905649723546],["stadje",-11.24707022514149],["▁model",-11.247270297705672],["▁Ger",-11.24752501250744],["▁laptop",-11.247578881612624],["stelling",-11.24763130966689],["▁hoofden",-11.24774476152668],["▁vuile",-11.247767462242866],["▁Perry",-11.24800399719981],["▁soorten",-11.248535025697764],["team",-11.248572816597695],["▁Bert",-11.249163502986535],["▁ladder",-11.249698322312812],["geladen",-11.249821004499609],["▁Lind",-11.249932462474868],["▁beroerd",-11.25001386693477],["sdien",-11.25003012133017],["ple",-11.250119549321962],["doende",-11.250174758868358],["slepen",-11.250955840256966],["▁ontvangst",-11.251439252767918],["streken",-11.25151520351337],["▁zestien",-11.251688728476308],["llen",-11.251760998070525],["▁Beid",-11.251808609382],["zeide",-11.251896589792938],["▁past",-11.252520621423844],["▁antwoordt",-11.254408074871854],["▁geestelijke",-11.254701822929553],["▁Rode",-11.25500579050168],["geschilderd",-11.255008999486709],["eronder",-11.255082123256214],["▁schreeuw",-11.25510672555048],["verspreidde",-11.25539662486542],["gelogen",-11.255645763571938],["▁chaos",-11.256049089415322],["▁behulp",-11.256212283891672],["gehuld",-11.256467603138953],["▁mobiele",-11.256990191103696],["▁huur",-11.257141840822657],["zat",-11.257561768075869],["▁vlieg",-11.257754086984018],["▁niveau",-11.257812538214097],["behoedzaam",-11.25782321513927],["▁daad",-11.25799431512432],["▁zong",-11.258059353907514],["▁eieren",-11.25820509442956],["▁staande",-11.258234899957234],["▁Dave",-11.25833152542621],["nodig",-11.258513989602989],["▁noem",-11.258736440036833],["▁staf",-11.259276281281505],["▁helm",-11.259816912325432],["staande",-11.259883094120138],["▁Lady",-11.2599964045349],["▁gemeente",-11.260239671038804],["Italië",-11.260744475845874],["schenen",-11.260790629984497],["stelen",-11.26093571194016],["port",-11.261704656239823],["▁kussens",-11.261940321744202],["▁Ana",-11.262023461777243],["way",-11.262315762487122],["▁haatt",-11.26235451893688],["wisselde",-11.262423530893408],["wand",-11.263511675876702],["▁vlakte",-11.263572770556062],["Twee",-11.26365929610427],["▁geldt",-11.264176349708055],["gra",-11.264898749054971],["Dag",-11.265132052933703],["▁bende",-11.265166837242312],["▁voorwerp",-11.265485223565364],["▁ambulance",-11.265633593695862],["▁burgemeester",-11.266437136643445],["▁nauw",-11.266635864964806],["ssen",-11.266680536093023],["uitdagend",-11.266967752694674],["geparkeerd",-11.267289306192666],["▁Pan",-11.26735357588064],["opgelost",-11.267590714128229],["accepteerd",-11.26839591763307],["Alle",-11.268960036407709],["▁pijp",-11.268991220547258],["▁dijen",-11.269320459674235],["gekost",-11.270467274467096],["▁fatsoenlijk",-11.270768259648287],["▁Cat",-11.270887838469427],["▁nabij",-11.271078257037358],["▁gruwelijk",-11.271286391440348],["▁Philip",-11.27145280310384],["▁scheef",-11.27161340284814],["▁Hele",-11.271678827409657],["wood",-11.271958238666],["ommigen",-11.272282862838104],["ademen",-11.272771627646511],["mmer",-11.272778535637332],["▁Pro",-11.272801103795238],["aamde",-11.273234458573578],["uitsluitend",-11.27342702423104],["▁Zal",-11.273749638778826],["dekens",-11.274001229476102],["levend",-11.27431339306919],["▁bi",-11.274514017884153],["▁Lou",-11.275097186279742],["▁slang",-11.275400003398987],["▁verhuisd",-11.275584379003474],["▁juli",-11.275631503184409],["▁salon",-11.276228727393129],["▁trui",-11.276437503515297],["passeerde",-11.276699610524371],["▁War",-11.276982180093576],["▁ritme",-11.276994405532635],["▁treurig",-11.277197958393362],["▁tweeling",-11.277208842243706],["▁plus",-11.277278107690524],["▁moorden",-11.277715104465452],["▁smal",-11.277797930247775],["speelden",-11.27780129414179],["proeven",-11.27780402324742],["▁tapijt",-11.277957468464535],["ontkennen",-11.278073604136392],["mor",-11.278265443820588],["▁bewaard",-11.278829476131726],["▁Oude",-11.278865952879444],["▁beantwoord",-11.27914736014038],["▁drieën",-11.279237070449556],["▁Victoria",-11.279784067691134],["▁gedoe",-11.280220819201125],["▁Morgan",-11.280267190395616],["Mevrouw",-11.280374401584416],["▁vernietigen",-11.280709233947086],["vormige",-11.281100699924378],["▁Cole",-11.282218271509045],["spreidde",-11.282627506965468],["rence",-11.283814808569694],["▁onafhankelijk",-11.284022542621928],["oosje",-11.28402278367346],["gevestigd",-11.284102181934566],["▁november",-11.284126305833643],["plegen",-11.284174347851154],["▁Mc",-11.28419897080222],["iteit",-11.28432537627617],["wijk",-11.284715126269283],["▁functie",-11.28512511988644],["▁herken",-11.285283671584144],["snelde",-11.28562799487828],["Och",-11.285796195372718],["geruststellend",-11.285996759787338],["strijken",-11.286442576171812],["▁prooi",-11.286447083305973],["stijfde",-11.286830482364811],["▁uitleg",-11.286960643160189],["▁oktober",-11.287261311090283],["geërgerd",-11.287263458301346],["gerend",-11.288153785159674],["▁troep",-11.28818175308176],["▁kip",-11.288552728159104],["▁Dick",-11.288781055661882],["▁zelfverzekerd",-11.288825913592026],["EN",-11.289326969189757],["week",-11.289723485463227],["makkelijker",-11.289870377740296],["herstellen",-11.2900585035906],["▁verpleegster",-11.290064726832387],["▁make",-11.290197799061945],["witte",-11.290298258637089],["▁vijfentwintig",-11.290524625590704],["▁overvallen",-11.290579009156426],["▁Sy",-11.290636016882544],["▁schilderijen",-11.290942274764522],["scheurde",-11.29126994600665],["▁aanvallen",-11.2916102010587],["▁Barr",-11.292034529164424],["▁intiem",-11.292041693937175],["▁Hard",-11.292156989340896],["▁pest",-11.292451070856217],["▁verraad",-11.292488320196467],["▁tachtig",-11.29263886124563],["▁januari",-11.292810599029574],["wachtten",-11.292951460267544],["medische",-11.293325385769249],["ogenblikken",-11.293682886009158],["voorkant",-11.293776941235892],["▁Elen",-11.29405755015873],["hart",-11.2942785000043],["▁Mia",-11.294432703074587],["streek",-11.294579317354543],["▁eindeloos",-11.294619086975976],["▁lijnen",-11.294644382824332],["▁code",-11.295598487719024],["▁India",-11.295601362730824],["▁Kelly",-11.295646300368391],["▁middernacht",-11.295710544382464],["vrouwelijke",-11.295780080272428],["▁excuus",-11.29588550932652],["▁troon",-11.296140299288918],["▁bruid",-11.29622589022987],["▁dader",-11.296279195208488],["▁kritiek",-11.296886697096529],["▁volmaakt",-11.297357768245543],["▁Grieks",-11.297697343642646],["Martha",-11.298090872371851],["gebruikelijke",-11.298376100920128],["▁nachtmerrie",-11.29846485107658],["beheersen",-11.29849622590199],["stukken",-11.300385309920076],["rey",-11.3008735760157],["▁politieman",-11.3021228747243],["▁Linda",-11.303141438384724],["doosje",-11.303451769196084],["▁graven",-11.303808343422643],["▁Dar",-11.303912955756118],["▁Bor",-11.303948241272918],["▁gemeenschap",-11.304130092953772],["▁banken",-11.304507673524196],["▁nuchter",-11.30469430593548],["▁commentaar",-11.30506142117034],["▁Nora",-11.305370382402293],["▁secretaresse",-11.305418645735491],["▁verloop",-11.30607426680252],["ars",-11.30616786631645],["▁medicijnen",-11.306196303621311],["▁afhankelijk",-11.306748407372996],["sco",-11.307216592659882],["slokje",-11.307901938289309],["beschreven",-11.308270603941372],["gestemd",-11.308310108185376],["spelen",-11.30834372317673],["nonchalant",-11.308546455767967],["▁april",-11.308618149160482],["▁zoete",-11.308636758997189],["kreten",-11.3088695875649],["▁Welk",-11.308870447573906],["▁wijk",-11.308915622144765],["▁Che",-11.309078226630874],["brandende",-11.309771235442112],["lui",-11.31011546093757],["▁Koning",-11.31059942730153],["▁Berlijn",-11.31081925648082],["▁Hugo",-11.310851080966078],["Had",-11.311211421927345],["▁fouten",-11.311405522615246],["pak",-11.311655253678078],["nummer",-11.31240196690252],["seksuele",-11.312505896661238],["▁bezorgdheid",-11.312767528277696],["vatten",-11.31288766567169],["lijst",-11.313158808178112],["▁fris",-11.313796008038738],["▁cijfers",-11.314193395087909],["▁donder",-11.314690401834389],["sieur",-11.31520239787783],["▁bekijk",-11.31564954257576],["biedt",-11.315740760468108],["▁Midden",-11.315844903425427],["blazen",-11.3159323279866],["klappen",-11.316358083117734],["▁Ash",-11.317063089584654],["▁Robin",-11.317714389859267],["▁Wal",-11.317837272143665],["▁journalist",-11.317898995378629],["▁hoofdpijn",-11.317949212582256],["▁piloot",-11.318448589273274],["▁ochtends",-11.318490581201273],["verzamelen",-11.31879760854161],["▁instructies",-11.31881614518466],["▁voer",-11.31889888847936],["favoriete",-11.31980359296959],["▁Tar",-11.319938427342745],["lezen",-11.320334204063442],["ation",-11.320412147675636],["bevrijden",-11.320526497316331],["▁Els",-11.320644198044716],["▁majoor",-11.32081479946516],["ringen",-11.321894712987897],["▁May",-11.322072752409955],["rukken",-11.32210765416317],["▁Tor",-11.322525899558872],["gegrepen",-11.32308186248682],["Europes",-11.323185419958271],["▁Gin",-11.323463779821104],["likte",-11.32351755005849],["hof",-11.323921240030735],["▁knoop",-11.32440792981255],["▁kwetsbaar",-11.32467284768158],["▁ijzer",-11.32490775379998],["▁Ab",-11.325217438320085],["▁gehoor",-11.325761725984547],["verdwijnt",-11.32584964183242],["bevestigde",-11.325870141545687],["sporen",-11.326006869239915],["La",-11.326915358810432],["▁Cassi",-11.327423262330315],["bewezen",-11.32746773561828],["▁roer",-11.328078865185388],["▁meiden",-11.328250903131766],["▁katten",-11.328399645014906],["▁cent",-11.328449467066523],["pas",-11.328464698293992],["Hoor",-11.328470676386065],["▁va",-11.328483081279304],["▁sloten",-11.328617091249024],["▁betrekking",-11.328888940139413],["▁weduwe",-11.32921740073566],["▁verdachte",-11.32956267735968],["iers",-11.329966768291545],["▁stank",-11.3302413786176],["▁kindje",-11.330479556426498],["zamerhand",-11.330825905541843],["▁buitenland",-11.331600137549714],["vegen",-11.33168670845865],["hoorbaar",-11.331691766824218],["▁bedienden",-11.331725036146924],["▁zuur",-11.332225324285057],["mail",-11.332815264404411],["▁helikopter",-11.33296950485076],["▁uiteinde",-11.33304352133612],["▁eenzame",-11.33362153557716],["renden",-11.3336764560902],["▁schor",-11.33380662038153],["vis",-11.333837243081367],["▁voorstelling",-11.334055477364709],["▁Mor",-11.33408564141909],["▁december",-11.335341999355997],["▁gezonde",-11.3357804207702],["gestort",-11.335843255714098],["▁toeristen",-11.336110660764502],["▁uitgang",-11.33621386689367],["▁bliksem",-11.336291428099043],["rum",-11.336322899549652],["hij",-11.336402994937846],["gezwollen",-11.33653599596177],["kend",-11.336735062623449],["iën",-11.337117079420484],["essa",-11.338220307945816],["▁inzicht",-11.338415162728808],["gebieden",-11.338452341433952],["▁Mama",-11.338681076549385],["▁lakens",-11.338768305314556],["wijze",-11.338864065319273],["uitgevoerd",-11.33893211855382],["▁glans",-11.339065971359668],["▁maandag",-11.33971711797192],["▁Fo",-11.339883997069062],["stappen",-11.340007086967068],["wuifde",-11.34060599825246],["▁belt",-11.340779679774734],["▁rozen",-11.34141237605711],["▁hunne",-11.341785246608314],["opmerkingen",-11.34203348723046],["gedoken",-11.342496315852454],["▁wier",-11.343138169076775],["▁humor",-11.343155464486005],["tevens",-11.343421906367473],["▁blinde",-11.343531821502316],["▁fruit",-11.344032870051697],["gevangen",-11.344071839435394],["▁deksel",-11.344082619431072],["vreesde",-11.344408384648816],["▁Ieder",-11.34440960709709],["wetenschappelijk",-11.34457997787574],["▁Mari",-11.344714520420926],["▁China",-11.344992810868582],["▁Pieter",-11.34502112160208],["▁reageer",-11.345053691890945],["▁knopen",-11.345267056529885],["hing",-11.345842472508265],["opwindend",-11.346096909533117],["joeg",-11.346097657174523],["▁Marc",-11.3461763934688],["versleten",-11.346194912111793],["▁vlam",-11.346377765895564],["Door",-11.346448167054517],["▁Amand",-11.346762198626246],["▁knal",-11.346768621913135],["▁zitkamer",-11.346788916081856],["middel",-11.346824259519874],["Eerlijk",-11.34711967880222],["▁Berg",-11.347227425209551],["▁schuim",-11.34732299593687],["aarentegen",-11.34800022938334],["Tante",-11.348110137049469],["▁onzichtbaar",-11.34839886547256],["▁sergeant",-11.348734608520315],["▁Marco",-11.348820893669131],["boot",-11.349134692820586],["gal",-11.349226986182208],["▁enthousiasme",-11.349918220617042],["▁Ram",-11.35002448193704],["▁Ian",-11.350096561628444],["kaart",-11.350114974383006],["reis",-11.350549356958362],["lossen",-11.35074944578691],["▁Oost",-11.350850579065655],["▁Ach",-11.351068127861572],["tijdelijk",-11.35159838133887],["▁straal",-11.35161536939268],["▁gebruikelijk",-11.351642378223168],["meter",-11.351729830877638],["eindigde",-11.351900951346153],["foto",-11.351906615363983],["▁Margaret",-11.352292967458526],["▁geruchten",-11.352360974384968],["▁domme",-11.35265274616142],["gehuurd",-11.353071611661507],["▁spul",-11.353380815646071],["maat",-11.353461469663603],["▁klootzak",-11.353628226347414],["▁artsen",-11.35383833756907],["▁Chine",-11.353980157625996],["▁burgers",-11.35431634296689],["▁vanzelfsprekend",-11.354485129539096],["hijgde",-11.354498777149578],["muur",-11.355169368251223],["▁Rusland",-11.35522653958562],["zwegen",-11.355905003625288],["▁balie",-11.356090689695671],["busje",-11.356876113181428],["▁bo",-11.357030590942038],["mislukt",-11.357476425721153],["schopte",-11.357539652779256],["Wees",-11.357693401560203],["▁afkeer",-11.35770551561638],["▁ge­",-11.357782135636054],["▁mon",-11.358433347831008],["wan",-11.359139615583382],["▁heup",-11.359158364699033],["▁kaartje",-11.359462442908086],["nadrukkelijk",-11.359649645470206],["lings",-11.360015942655624],["▁Karen",-11.360276164308315],["weigeren",-11.36034608178557],["dwalen",-11.36080053217762],["▁vrachtwagen",-11.360921898053382],["har",-11.361121017896767],["bro",-11.36118047676456],["▁strenge",-11.361328795416611],["baan",-11.361482146781771],["gevochten",-11.361878524879993],["wegens",-11.362062633680472],["eihard",-11.362310513664358],["bloosd",-11.362612993403548],["▁zolder",-11.362684795064675],["▁vrijdag",-11.36279763673015],["ence",-11.363289099875884],["▁tweehonderd",-11.363380834579658],["leg",-11.363504813144733],["▁verkoop",-11.363640931032366],["▁kraag",-11.364453965469066],["▁vreemdeling",-11.364559148460698],["▁benauwd",-11.365085473635292],["▁Jon",-11.365260680115924],["ssica",-11.365307838115724],["jaar",-11.36593994979361],["namen",-11.366011817808232],["▁bont",-11.366065839467597],["▁interview",-11.366400056470724],["behandelen",-11.366809446987064],["geduwd",-11.367198332493338],["chen",-11.36742324249506],["wenkte",-11.367697953394847],["▁aankomst",-11.367844323606588],["gor",-11.368061470933668],["▁Lor",-11.368306074228222],["▁drempel",-11.36841128866567],["laag",-11.368690661026374],["▁cultuur",-11.368887243626771],["gevoegd",-11.36896269529186],["▁hoofdstuk",-11.36928791505419],["▁gold",-11.369516771724385],["▁blond",-11.369573534345555],["kers",-11.369707349090838],["▁receptie",-11.370054398238148],["▁wreed",-11.370118262414636],["▁spier",-11.370481196075156],["smeet",-11.370926052157683],["▁Cock",-11.370947221455834],["▁verdiep",-11.371271067585663],["▁wenkbrauw",-11.371788750209962],["wenden",-11.371983130673591],["▁Abb",-11.371998012571106],["▁stro",-11.372082881371805],["▁Phil",-11.372310194598892],["▁miljoenen",-11.372392268218002],["▁puur",-11.372627642234663],["bood",-11.37271518320863],["▁kooi",-11.373141651429814],["▁snor",-11.373403431207354],["▁boter",-11.373493856282296],["▁Pat",-11.373551108271451],["vernietigd",-11.374288486652452],["bleef",-11.374453110885396],["hoofd",-11.374580987999044],["▁Kath",-11.3746003911143],["▁constant",-11.375003459428118],["▁Oliver",-11.375213650571537],["▁bevind",-11.375216474022915],["▁Ty",-11.375476960832405],["Vandaa",-11.37612553070796],["vermijden",-11.37623407582683],["▁Mont",-11.376292019877065],["bedrijf",-11.376438302993623],["Graa",-11.377194782764349],["▁gulden",-11.377636259368824],["aanleiding",-11.37767478326121],["plaatste",-11.377768525138888],["▁populair",-11.377943343708171],["▁Sha",-11.378017374152666],["▁schuldgevoel",-11.378435540276977],["▁Scott",-11.37844292852725],["verschrikt",-11.378646034996702],["beland",-11.37871214766118],["maakten",-11.378752910329856],["vervuld",-11.378797712112302],["▁verzinne",-11.379068625517714],["schuilplaats",-11.379338884048137],["roerloos",-11.379654013894363],["▁leest",-11.37994865619768],["slikken",-11.380038090858974],["▁kaal",-11.38005788846978],["▁Prins",-11.380252637000025],["centrum",-11.380312188123074],["heerste",-11.380763264747864],["»",-11.380790600507549],["▁Zi",-11.381158413513717],["▁aangenaam",-11.38124637243191],["▁Johnn",-11.3813591541077],["opgetrokken",-11.381725302319945],["▁Pi",-11.382414440470422],["duizend",-11.382849949562358],["figuren",-11.383928497867927],["▁Karel",-11.383959315618728],["▁Tal",-11.384004345177647],["onderdrukte",-11.38405522012958],["zaken",-11.384182460167958],["lag",-11.384857483192771],["▁zeep",-11.384948401008076],["▁binnenste",-11.385136323735082],["▁achterdeur",-11.385311987910695],["partij",-11.385879588640083],["▁officieren",-11.3862360184787],["machtige",-11.386400468012502],["▁Joden",-11.386692548603746],["▁Juli",-11.387001727678518],["▁Zeker",-11.387158040501005],["▁Ron",-11.387224866166656],["onwaarschijnlijk",-11.38743467505552],["▁terugkom",-11.387538398539805],["▁Gewoon",-11.38793453492567],["▁draak",-11.387995550324147],["▁raadsel",-11.38824964799242],["wekte",-11.388271076873377],["gelach",-11.389168336801031],["opnemen",-11.389326651443096],["▁Sall",-11.38941966308444],["▁holde",-11.389640585446717],["▁kogels",-11.389688747494867],["beefde",-11.38990868917547],["scheiden",-11.390006945053315],["▁Henk",-11.390199322232936],["▁contract",-11.39021544806216],["mijn",-11.390479631609471],["verdomde",-11.39076854502756],["▁Kees",-11.39106264475988],["▁ba",-11.391203437790288],["▁oceaan",-11.391495884625954],["▁Carlo",-11.391644044071128],["▁Au",-11.391801685711584],["▁miss",-11.391802080505052],["halve",-11.3920996726344],["▁Maarten",-11.39227660825673],["▁Sylvi",-11.392346077553434],["spi",-11.392436820722036],["▁Dun",-11.393096405756236],["gelachen",-11.39317263188896],["▁zelfvertrouwen",-11.393191587082391],["onwillekeurig",-11.393240182604783],["▁kier",-11.393605736918516],["▁blouse",-11.393694269433954],["zakje",-11.393950018627732],["geschreeuw",-11.39434326831721],["▁Haag",-11.394572201624891],["▁piano",-11.394735704560636],["▁rommel",-11.394815875132885],["Morgen",-11.39483972482151],["▁oven",-11.39526681175325],["▁Wall",-11.39545156679834],["stem",-11.395752057771354],["kringen",-11.395755869267534],["raak",-11.396197326838369],["verleidelijk",-11.396276859908031],["Onze",-11.396451349440872],["▁Afrika",-11.396528254247308],["getogen",-11.397052663716916],["▁liefdes",-11.39730531715566],["onthouden",-11.397439562658864],["▁hope",-11.3975074571651],["▁uitge",-11.398166330914275],["▁Dirk",-11.398171186744996],["▁tusschen",-11.398188923292988],["Wilt",-11.398229054491216],["▁verdeeld",-11.398409316612714],["▁zeventig",-11.399150406071822],["glipte",-11.399221317451728],["gerold",-11.39927550630384],["▁landgoed",-11.399611134935734],["stenen",-11.399701355910004],["verdient",-11.399864051651251],["methode",-11.400616848461326],["naam",-11.40083453647486],["▁you",-11.401121768906476],["▁ridder",-11.401296923107292],["▁verdediging",-11.40186192401966],["uil",-11.40330827700478],["boeken",-11.403717562079654],["gezamenlijk",-11.404440667291963],["praatten",-11.404571694591787],["▁Sta",-11.404617834862352],["tegenstander",-11.404928943153347],["▁avontuur",-11.40530430843423],["▁Justin",-11.40545039234333],["mouwen",-11.40548138313488],["erdoor",-11.405512736601487],["vervloekte",-11.40559837372584],["▁Vincent",-11.40583829875374],["▁schoen",-11.40598717514052],["tekende",-11.40673487310503],["than",-11.406915313956208],["▁eeuwigheid",-11.407910887998256],["▁Ber",-11.408040474455907],["▁angstaanjagend",-11.408368715140066],["▁She",-11.40849687106183],["▁koorts",-11.40874243534402],["▁droomde",-11.409235655171187],["▁Moll",-11.409681003607488],["▁schild",-11.409812271353823],["▁Tra",-11.409869952739191],["▁gezag",-11.410289397780955],["▁eenzaamheid",-11.410403951970032],["voorwerpen",-11.41055490152364],["▁positieve",-11.41066769212575],["nors",-11.4108203340998],["schakelen",-11.411008117127835],["rustte",-11.411147005047535],["elde",-11.411477417498734],["▁merkt",-11.41179102438308],["▁steil",-11.41270212305363],["▁flessen",-11.41307527535567],["deinsde",-11.413316534773642],["machine",-11.413344632135292],["gewoond",-11.413381191124472],["▁onbekend",-11.413524282303936],["▁Loga",-11.413536943776972],["los",-11.413733746496344],["▁nijdig",-11.413739438356847],["▁vierkante",-11.413853018432793],["▁Eddi",-11.41395838362903],["▁slaapt",-11.413989584547258],["mont",-11.414269565514894],["▁borstkas",-11.41489790696932],["▁ergernis",-11.415462391503864],["gearresteerd",-11.41566160978082],["becca",-11.416172754219447],["▁Sol",-11.416189283604664],["▁bedrog",-11.41632898442428],["lier",-11.41654328161715],["erheen",-11.417517615114225],["▁achterbank",-11.417937373591291],["▁Nadi",-11.41805027658586],["▁bestemming",-11.418415030522622],["pers",-11.418844123118092],["ervaringen",-11.418914087544204],["▁frons",-11.419107058638645],["▁Karl",-11.419124881457748],["Net",-11.419210374391827],["▁waardig",-11.419242989889742],["▁Col",-11.419427198918546],["hulpeloo",-11.419520025641283],["▁Spanje",-11.419520348080724],["gebakken",-11.419718745066454],["plan",-11.420027754361186],["braken",-11.420222899646882],["▁afschuw",-11.420543319445397],["▁Hart",-11.420745017511878],["▁dagboek",-11.420887953033745],["▁Bon",-11.421247407552023],["▁minnaar",-11.421428641404797],["▁Mil",-11.421609469812816],["beschouwen",-11.422033628466108],["bevinden",-11.422827676158368],["▁afwezigheid",-11.422982954902478],["▁recent",-11.42300280293376],["drongen",-11.423081660982922],["bert",-11.423124574196976],["log",-11.423532454087656],["▁wolf",-11.423673684143091],["▁geslacht",-11.42386767668581],["▁commando",-11.423919955582726],["elders",-11.424618197215883],["▁lady",-11.424879213191138],["▁lord",-11.424939793882723],["▁mannetje",-11.425094369269877],["ernaast",-11.425530266129996],["binden",-11.425736568215568],["▁Diana",-11.425949042751716],["▁Nathan",-11.426025148734396],["verlopen",-11.426081971770516],["▁Joseph",-11.426178728069557],["broertje",-11.427002376841688],["burg",-11.42705636572558],["bezorgen",-11.427392183878077],["▁schapen",-11.427726935963245],["koud",-11.427846374108048],["informeerde",-11.428002384744776],["▁flits",-11.42808672179136],["▁Hugh",-11.428151099263008],["puntje",-11.428160844115268],["lichaam",-11.428245455791266],["klagen",-11.428676101375084],["▁voetbal",-11.428939228924587],["▁openbare",-11.429077496846883],["weren",-11.429468260646114],["▁veroorlo",-11.429479201020998],["▁vriendje",-11.429509327130804],["schepen",-11.429680453409889],["▁rijtuig",-11.429692867042858],["▁King",-11.4297308953206],["buiten",-11.430170120325323],["▁Trouw",-11.430380661916145],["uurtje",-11.43069851914998],["ance",-11.431071152278744],["verwerken",-11.431108611300974],["bomen",-11.431406151972183],["ington",-11.431441552202942],["indeloze",-11.431841246272317],["rina",-11.432057035090386],["▁Vaa",-11.432167923701323],["leider",-11.432171579382304],["club",-11.43227200364296],["▁zonde",-11.4327129764485],["▁feestje",-11.432720799626088],["▁Italiaans",-11.433187776364305],["▁zussen",-11.433558546384262],["▁menschen",-11.433565471228231],["broek",-11.43399692986822],["▁Wilde",-11.434621472561888],["▁gebeurtenis",-11.434898962078972],["instantie",-11.435016982273297],["▁Bra",-11.435216240296684],["verrassend",-11.435323972022209],["polsen",-11.436146950513358],["▁gevangene",-11.436349572816402],["beweging",-11.4365583398818],["▁plechtig",-11.436641945644942],["egeren",-11.436651319257484],["tekeer",-11.437475525077009],["▁Vrij",-11.437503284233394],["geschonken",-11.437857074471902],["feest",-11.437984958697452],["▁rechten",-11.438061877958871],["nlangs",-11.438346550350868],["controleerde",-11.438495506854869],["dic",-11.438534134972697],["▁zoet",-11.439237656115722],["was",-11.43944629109068],["▁bevatte",-11.439755783827351],["▁vierentwintig",-11.4397685594411],["▁kil",-11.43978145442986],["▁Dag",-11.439795638776856],["▁Kati",-11.440159121918873],["▁zweer",-11.440289446027746],["▁knik",-11.440602260014671],["▁danste",-11.440783980678084],["Ka",-11.441815931301086],["▁groots",-11.442804150752687],["beledigd",-11.442947428801922],["▁ruil",-11.442990018616374],["▁bemoei",-11.443413831496535],["▁Ku",-11.4435933418669],["Lydi",-11.444287367581264],["▁dozen",-11.444506048873746],["gaten",-11.44485426768785],["▁verse",-11.44528916138792],["▁triomfantelijk",-11.445488940484587],["openlijk",-11.445846122150591],["▁rechtbank",-11.446024455252848],["▁stralen",-11.446282963628729],["▁Toe",-11.446626334626345],["verheugd",-11.447162134886405],["familieleden",-11.447317719228836],["▁vi",-11.447646739059206],["gewekt",-11.44770992351781],["beslissen",-11.447737875990985],["▁argwa",-11.447934932279896],["zoveelste",-11.448034412900784],["schijnen",-11.44815123104736],["▁Sint",-11.448356812736137],["▁draag",-11.448805172702098],["▁verlang",-11.448811358631584],["gevlogen",-11.449234043123829],["bevroren",-11.44929768342466],["ader",-11.449399231039402],["▁laken",-11.44958830135887],["knaap",-11.4495957743195],["▁Christian",-11.449840977836796],["verdomd",-11.449967579531208],["▁Chi",-11.44999740724565],["▁verzameling",-11.450111432010075],["fantastische",-11.450172848680046],["knikje",-11.45025696484904],["▁oppervlak",-11.450288400980044],["▁Piet",-11.450600548995784],["▁Jeff",-11.451022041179703],["vuren",-11.451087621714803],["▁morgens",-11.451244964964705],["▁lampen",-11.451320362922386],["genoot",-11.451358364077874],["vier",-11.451450143486888],["▁rauw",-11.451459934564662],["mmel",-11.451608329235212],["gezakt",-11.452882070315855],["concentreerde",-11.453550016203952],["Tommy",-11.453568585765453],["▁oorspronkelijk",-11.453847315810169],["▁beweer",-11.454181413953632],["▁documenten",-11.454851658439033],["▁Ya",-11.45495022114191],["geklopt",-11.45509176784072],["▁persoonlijkheid",-11.455155659754032],["▁Roos",-11.45535474373339],["▁lied",-11.45552438776665],["▁Thor",-11.4555915109615],["geschakeld",-11.45576981091536],["▁borrel",-11.455812873713937],["rachtte",-11.455857854701126],["parkeerde",-11.4561503739921],["▁mode",-11.456878864507058],["rick",-11.457311409878892],["▁video",-11.457746183637887],["▁woeste",-11.45818455907272],["Som",-11.45839278407254],["tisch",-11.45843828063646],["Bent",-11.45848775238746],["▁onzichtba",-11.45875108199665],["▁pal",-11.458773942515151],["▁Green",-11.459086642314688],["▁Anton",-11.459213638989874],["bankje",-11.459291773738451],["▁traditie",-11.45965503238132],["▁Rand",-11.459987384614138],["▁Zwarte",-11.460260032379653],["▁Mat",-11.460281658275209],["lum",-11.460591451135471],["▁Hou",-11.460716187012782],["Catherin",-11.460852199073983],["rak",-11.460981099451375],["glinsterde",-11.461077474123524],["▁Hope",-11.461438082964603],["▁beschikking",-11.461528752651928],["▁Slecht",-11.46188702426325],["▁Duits",-11.46257618678695],["▁hartstocht",-11.46274641162723],["▁Ur",-11.463037128272571],["▁cadeau",-11.4630896627262],["▁Alan",-11.463398161675794],["▁Mer",-11.464180980216812],["wankelde",-11.464254855539115],["▁weerstand",-11.464351663229255],["▁drink",-11.464668262205851],["bos",-11.464832283168304],["▁Kenne",-11.465182762181778],["onderzoek",-11.4655577379068],["begaan",-11.465929026968038],["▁uitgaan",-11.466218086091589],["pel",-11.466244716905557],["▁Herman",-11.466735624830353],["▁koeien",-11.46679637462654],["beperkt",-11.466910085116195],["doet",-11.466919502674337],["▁Min",-11.467507119867998],["antwoordde",-11.46791273277391],["▁Stephen",-11.469006855048866],["onathan",-11.46938237703104],["leefden",-11.469384362970567],["▁goedkope",-11.469464927370693],["▁vermoeidheid",-11.470056169615765],["staarden",-11.470408360624834],["lor",-11.470453643138306],["druk",-11.470570058966848],["▁streep",-11.47080058123836],["▁verschijning",-11.471274899679988],["▁Ve",-11.471584176196934],["▁besluiten",-11.471688734261097],["▁passie",-11.471923200214224],["duurd",-11.47194837370729],["▁portret",-11.472155420391433],["▁nicht",-11.472171667691432],["▁Aar",-11.47313215391062],["ary",-11.473574655912325],["romheen",-11.473578175563024],["zweefde",-11.473847276719704],["hapte",-11.473999248367022],["▁vlakke",-11.474341506538275],["▁ongewoon",-11.47444605275867],["▁hartslag",-11.474526917022713],["abel",-11.474974982536134],["▁drukt",-11.475647721026672],["▁dorst",-11.475719946330726],["onderbroken",-11.475802407379527],["cas",-11.476310428678488],["▁gehel",-11.476569369189852],["zit",-11.477113367816257],["▁oprit",-11.477471539543965],["blok",-11.4777466817884],["sto",-11.477747579832318],["matig",-11.47778993869067],["▁oneindig",-11.477892670626195],["▁indien",-11.479523128135682],["wie",-11.479943568263415],["▁verschijn",-11.480136081070444],["onderhouden",-11.480312791697273],["▁Lei",-11.480693740804014],["lat",-11.480873835799798],["Da",-11.481222340825507],["ure",-11.48149533855524],["spoelde",-11.481681573716692],["wegen",-11.48185120597158],["▁buiging",-11.482098690005838],["▁herberg",-11.482492859768197],["▁FBI",-11.482565103573512],["▁luistert",-11.48265177271422],["oogleden",-11.483089772607013],["eck",-11.48324468372563],["▁oppervlakte",-11.483572488927573],["▁winkels",-11.484165406910469],["▁Los",-11.485141059862372],["Lieve",-11.485469093517478],["▁tafels",-11.485578727592085],["merkte",-11.48565428328452],["▁richt",-11.485679228475748],["Daniël",-11.485867510754352],["▁assistent",-11.486164087171188],["markt",-11.486674796276104],["▁Hall",-11.486679306056208],["Waarschijnlijk",-11.486902198487437],["▁misbruik",-11.48711511287932],["ack",-11.487705082094172],["▁woud",-11.487762934912311],["▁raak",-11.48788338382221],["▁Kit",-11.48819775111638],["▁betwijfel",-11.488251396612942],["Iedere",-11.48826564511293],["charmant",-11.489413399633332],["verstreken",-11.489620571712894],["▁ober",-11.489652808158397],["▁Rad",-11.489848681595792],["dwin",-11.489879259637648],["▁stoot",-11.49018467356404],["gas",-11.490259923021693],["▁inlichtingen",-11.49093072962879],["lereerst",-11.491128831853093],["▁beëindig",-11.491370361629128],["hangende",-11.491917746461471],["▁detail",-11.492059592533437],["vloer",-11.492083888502949],["▁fluistert",-11.49267967747191],["▁Vertel",-11.49294614469681],["▁hartstochtelijk",-11.49309368283342],["▁cliënt",-11.493302049963743],["▁Sebastian",-11.493520895579085],["▁zoog",-11.493798252698454],["subtiel",-11.493890493134897],["▁samenleving",-11.49389089872884],["▁wa",-11.49400297017151],["▁Egypte",-11.494088604147697],["▁Hel",-11.49423266219123],["▁geruis",-11.494574348624903],["wezen",-11.494641057405293],["▁februari",-11.49512822359054],["▁begeerte",-11.495219560174236],["ingericht",-11.495591056755234],["▁Bell",-11.49574143577684],["▁maatschappij",-11.495810651531627],["▁groepen",-11.49606121135342],["▁Hotel",-11.496456479828034],["▁gave",-11.496463332560248],["▁Tess",-11.49660879050312],["▁Eli",-11.49662935500578],["▁platte",-11.496634275959018],["getoond",-11.496852909300346],["▁verbeelding",-11.497015321008316],["▁scheeps",-11.49704632194648],["▁verrukkelijk",-11.497152776644628],["ties",-11.49717875189426],["▁engel",-11.497320017866503],["▁opstand",-11.497353391940312],["▁emmer",-11.497807978347716],["for",-11.498498983722186],["grond",-11.498547176510964],["▁voorraad",-11.4988281551452],["▁nevel",-11.498934705826906],["▁marine",-11.499252398989151],["Ca",-11.50011343014303],["kind",-11.500577713750287],["▁Raad",-11.5009906357677],["▁Noa",-11.501329275066624],["car",-11.50143021337074],["▁Moskou",-11.50151462017242],["stroom",-11.501605889486688],["liefste",-11.502292505707866],["knipte",-11.502642206969714],["▁serie",-11.50264643346808],["eling",-11.50267343430483],["zig",-11.503082583913876],["▁gunstig",-11.50308544686427],["▁vals",-11.503543534760782],["▁rijst",-11.50401240160569],["▁drankje",-11.50449619236774],["hond",-11.504692779299983],["struikelde",-11.5049296103316],["▁Dais",-11.50501787885231],["▁lading",-11.505193957760811],["gepast",-11.505213504342674],["dichtstbijzijnd",-11.50530249602032],["▁Jess",-11.50531722171031],["vorig",-11.5054449712354],["▁snak",-11.5055922196055],["▁vloek",-11.5059364154515],["bor",-11.50638010596696],["▁kaarsen",-11.506539472509557],["▁Tweede",-11.506554584176191],["oude",-11.506671697424816],["▁lood",-11.507112009110646],["woord",-11.50731986430544],["▁omheen",-11.50752804925871],["ax",-11.507531573665364],["▁akkoord",-11.507681469789818],["off",-11.5077382385201],["scheuren",-11.507820660452014],["▁Hendrik",-11.508090804883496],["▁Lin",-11.508193206348398],["▁for",-11.508206992838588],["gebaseerd",-11.509173805090674],["maatregelen",-11.509354711954728],["▁Sp",-11.50972152370134],["▁Bram",-11.51008168149892],["q",-11.510086321095168],["▁zwangerschap",-11.510392990556245],["▁Winter",-11.510760615071126],["▁brok",-11.51110944521314],["▁gil",-11.511277990545072],["▁vijfde",-11.511292143554176],["spannen",-11.511801914750484],["▁klem",-11.512129600766576],["donker",-11.51232754551363],["▁activiteiten",-11.512477324269252],["▁Holly",-11.512603145643338],["▁achterste",-11.512607091343709],["hoed",-11.51261944857594],["jaren",-11.513221902388862],["gedroomd",-11.513248810308127],["▁leugens",-11.513600242405635],["▁dolk",-11.513869925683618],["▁Madd",-11.514126977052138],["▁Jackson",-11.51420577241828],["vingertoppen",-11.514722962123384],["▁kruiden",-11.514796378828558],["hemelsnaam",-11.514879144306304],["▁ribben",-11.51512493873829],["binnenkant",-11.51516477712394],["▁Russen",-11.515247102118972],["snel",-11.515282411145138],["▁kade",-11.51549107606613],["▁Tessa",-11.515746206127702],["▁mensheid",-11.516119984695466],["opmerkelijk",-11.516458819349191],["▁spot",-11.51651072727586],["▁opnam",-11.517077319460364],["voldaan",-11.517206980424882],["▁noordelijk",-11.517508214840277],["▁loog",-11.517636164777462],["▁Otto",-11.518380013313378],["arzelend",-11.51856059479841],["íj",-11.518828686019976],["slaperig",-11.51912046211875],["draagt",-11.519324618529785],["▁datum",-11.51963077244328],["bemoeien",-11.519636433135831],["telt",-11.520299775136545],["▁huwelijks",-11.52038336587723],["▁humeur",-11.52050271964324],["stijve",-11.520649655444252],["▁Bull",-11.521187297249451],["▁Kerk",-11.52123590966418],["landen",-11.521569869105624],["trilden",-11.521771863872113],["gesprongen",-11.521839818315163],["▁Dom",-11.522707166092111],["▁Sann",-11.52279584102146],["Geloof",-11.522848808217995],["▁Kra",-11.522997633054452],["▁matras",-11.523043144477263],["gericht",-11.523141926626636],["boden",-11.523177310652551],["▁Br",-11.523493856913046],["verzonken",-11.52366824314806],["bezittingen",-11.523698325140792],["stein",-11.524113148309066],["scherm",-11.52418578019133],["▁kippen",-11.524226979229445],["lenen",-11.5245122556665],["wijzend",-11.524551328926622],["▁appel",-11.524828063085788],["▁graden",-11.52487466630067],["veranderingen",-11.524995474187737],["▁Mars",-11.525210261924558],["▁politiebureau",-11.52523973695619],["aangenomen",-11.525454827106824],["▁Holland",-11.525475611860214],["▁lol",-11.525543067042872],["▁Atlan",-11.525649864396655],["ock",-11.525819687871332],["▁Gil",-11.525980523936123],["zwaaien",-11.526149019770656],["▁Rein",-11.52645809761228],["▁lichtjes",-11.526616114861934],["doffe",-11.526634093795638],["▁echo",-11.527269951868009],["▁venster",-11.527832784676711],["▁onderneming",-11.527902709365458],["aangename",-11.528281857133178],["▁Cha",-11.52843382379265],["écht",-11.528731338013566],["▁Schaduw",-11.528819098524396],["▁Jones",-11.52938528293566],["spraak",-11.52939718602477],["▁antiek",-11.529430074650566],["▁exact",-11.52944606186619],["uwen",-11.529727065600834],["dringt",-11.529782750156189],["▁Bett",-11.529816650024896],["stuur",-11.529863113001973],["gekleurde",-11.529872214069162],["ique",-11.530176181454266],["▁achteraf",-11.530177487498964],["poot",-11.531268566891532],["▁Via",-11.531407687465824],["hem",-11.531656036140486],["▁temperatuur",-11.531662144153216],["▁hersen",-11.531723445055038],["▁omvang",-11.53239293975177],["Hoez",-11.532700908437654],["▁Ont",-11.532885911388396],["stalten",-11.533230586424844],["▁Isabel",-11.533334014688595],["bil",-11.533670869487509],["stof",-11.533950947481037],["▁pastoor",-11.534101453323649],["Fijn",-11.534258547647209],["gezonden",-11.534413533985369],["▁Com",-11.534571188741149],["▁geniet",-11.534584950409048],["schakelde",-11.53458645142296],["stor",-11.53467332724003],["gepland",-11.534739958112214],["▁leef",-11.535328033432274],["Pa",-11.53539701651098],["▁dertien",-11.53594128459255],["rec",-11.53609759323906],["▁Pierre",-11.53611057502954],["rilde",-11.53710322532292],["▁geleidelijk",-11.537109956845574],["noemden",-11.537219563542973],["▁klik",-11.537340740776164],["▁Vo",-11.537365689277246],["pri",-11.537485957385837],["▁arbeiders",-11.537670191579233],["▁Ross",-11.538118888943348],["▁aandoen",-11.53927254015468],["vooruitzicht",-11.53942995308953],["▁wetten",-11.539617517480249],["elektrische",-11.539619427152854],["▁Art",-11.539689413176289],["tuele",-11.539960902242427],["wandelde",-11.540236294537271],["oord",-11.540487092939951],["▁Beck",-11.540500646330646],["▁sjaal",-11.540517861085917],["▁Bri",-11.540889933145678],["twijfelen",-11.541109559717052],["▁My",-11.541175899042658],["▁volks",-11.541207574754097],["grijnzend",-11.541674743610477],["▁onrust",-11.541880498352336],["▁daglicht",-11.541942330316344],["▁nazi",-11.54202360231772],["▁achterhoofd",-11.54203315215363],["▁lul",-11.542829203998966],["ú",-11.543758814779151],["Af",-11.544177107647046],["▁zusters",-11.544733216581283],["▁Belgi",-11.544865700799956],["stemmend",-11.544949310379774],["▁hogere",-11.545067925063313],["tillen",-11.545185739996596],["▁inwoners",-11.54539788192482],["▁dorps",-11.545592792776503],["Leuk",-11.545810563305432],["▁realiteit",-11.54630589928807],["iger",-11.546440668456288],["deuren",-11.546506713529109],["ity",-11.546546820996548],["▁kroon",-11.546926603660724],["gevlucht",-11.546938777713375],["Arabisch",-11.547001529150238],["▁geschenk",-11.54736155813464],["▁kwaliteit",-11.54746092643423],["▁verbaas",-11.547475607064214],["▁verborg",-11.54805641651739],["groette",-11.54823253654683],["▁daden",-11.548334154554546],["▁uitspraak",-11.54834665259938],["vorm",-11.54850055398353],["gauw",-11.54851491747478],["oud",-11.548586089652597],["cel",-11.54871729147761],["koude",-11.548740670193189],["▁fietsen",-11.54890681801887],["ziek",-11.548993931254287],["▁Cam",-11.549082085802654],["ruikt",-11.549122777435295],["▁taart",-11.54913704365349],["▁vork",-11.549348714609623],["▁koper",-11.549493558035287],["▁speelgoed",-11.550374628168411],["▁boeg",-11.550512943599896],["lichten",-11.551605949570922],["▁duw",-11.551627341443124],["zoenen",-11.551740617249454],["elli",-11.551973378988786],["▁duizelig",-11.5525888751841],["▁museum",-11.552835472662048],["opgegeven",-11.552906242650176],["▁gevaren",-11.552923504586076],["achterin",-11.553182622278229],["gedeeltelijk",-11.553622834591572],["ontwikkelen",-11.553809494082676],["wijl",-11.553817429055492],["stemmetje",-11.553838022015311],["▁Stefan",-11.5540035689784],["▁werkkamer",-11.55432295922586],["roerde",-11.554506768752342],["▁Iris",-11.554716106792243],["▁complex",-11.55488085566732],["▁verlichting",-11.55505011069425],["▁pand",-11.555120797687714],["▁Meg",-11.55515395314387],["Romeins",-11.55537013250924],["▁ellebogen",-11.55538054983686],["gillen",-11.555382088395785],["aanstaande",-11.555530810052344],["afdeling",-11.555831033650248],["▁winst",-11.55594532624624],["▁uitdaging",-11.55621700206462],["▁Ella",-11.556280381106829],["benieuwd",-11.556376625967758],["▁leerling",-11.556873497891091],["maker",-11.556946065820052],["ieten",-11.556955675903156],["Ten",-11.556996388998485],["▁student",-11.557049699327624],["▁maanlicht",-11.557208113490356],["nemende",-11.55741239141717],["gewikkeld",-11.557578091643949],["besproken",-11.557984863555284],["istische",-11.558128075914547],["▁theater",-11.558282189751658],["langdurig",-11.558388801309054],["▁Vreemd",-11.558577811225852],["▁paus",-11.558636970929856],["▁gif",-11.55868837414151],["▁Sovjet",-11.558765256032975],["riem",-11.55876995532456],["▁buitenlandse",-11.55886300386636],["lopende",-11.558973104876372],["sky",-11.559156610776585],["handig",-11.559354051266329],["alen",-11.55937664725844],["▁test",-11.5594809565302],["▁blijdschap",-11.560065686695223],["wijken",-11.56010197609923],["genaamd",-11.560139510604692],["▁II",-11.560183638873117],["zwaarder",-11.560271237562196],["geschoren",-11.56049283481553],["▁telefoonnummer",-11.560889016165817],["▁klauwen",-11.56129246945024],["kleinste",-11.561792651572684],["▁beschrijving",-11.561838736167964],["antwoord",-11.561950255005078],["▁kroeg",-11.56266683605496],["nadenkend",-11.56288881159351],["ndeels",-11.562956383974418],["▁Lie",-11.563667408814805],["▁krankzinnig",-11.56421290975318],["▁films",-11.564325599641716],["heb",-11.56521914473404],["logeren",-11.565528977138245],["▁spring",-11.565568561556953],["verzetten",-11.565617632219825],["bijten",-11.565721602928251],["▁schatten",-11.56604444447497],["Bedoe",-11.566435149441403],["gewapend",-11.566446086692334],["szijden",-11.566800356440382],["▁beende",-11.567085567892532],["▁ondeugend",-11.567198789147916],["▁stoom",-11.567839842816564],["▁vlekken",-11.567847934232594],["▁Jordan",-11.56802749516322],["▁Roy",-11.568197200395788],["▁oogenblik",-11.568319668388652],["schaamde",-11.56858309880592],["▁Shan",-11.568823720990968],["▁overdag",-11.56896490958893],["geknipt",-11.56912247765701],["oplossen",-11.56928779914002],["verdiepingen",-11.569287800023549],["▁jury",-11.56929350283531],["▁Ag",-11.569567707565804],["▁Carter",-11.569843344815183],["slanke",-11.56989862556005],["gers",-11.569920602764816],["bad",-11.569969310434653],["ble",-11.570060527666223],["▁puin",-11.57027724040934],["beelden",-11.570291201938234],["Hè",-11.570671111473954],["▁schijnsel",-11.570954274159462],["bewonderd",-11.57165468492721],["▁Aven",-11.572536254189316],["▁arrogant",-11.572537529208349],["raapte",-11.572775867111565],["▁Kyl",-11.573284127708064],["dit",-11.573318864283708],["▁tijdschrift",-11.573404900028327],["▁Pete",-11.573409682081468],["▁Brown",-11.573451477339129],["▁loon",-11.573720103298342],["deren",-11.57377285191032],["▁Bou",-11.57392118106254],["Sta",-11.574623431151556],["Joods",-11.574658176450749],["uffrouw",-11.574823316400408],["egens",-11.57498678533805],["papier",-11.575004588422129],["toppen",-11.575387985327406],["▁Mega",-11.57574014355428],["▁vloot",-11.576080468473435],["▁Gro",-11.576087595931934],["ietwat",-11.57647378173298],["▁Heilige",-11.57667443539433],["bordje",-11.57670317059961],["stelsel",-11.577284831992932],["▁lap",-11.577326795380426],["▁weiger",-11.577476547499767],["▁zeventien",-11.577637122021317],["▁behouden",-11.578057530815176],["huren",-11.57861164344842],["trouwde",-11.57876256466246],["▁buurman",-11.579221677361462],["sleepte",-11.579413880301155],["▁schande",-11.579435961848318],["kastje",-11.579690015461042],["Toe",-11.579849842086151],["cus",-11.580099097260623],["auto",-11.5803613392346],["▁Tro",-11.58037130123841],["magere",-11.580433767808458],["loopt",-11.580686922752095],["▁verplaats",-11.580949286781742],["▁lichter",-11.58133013514808],["begrijpend",-11.581360321067706],["▁leraar",-11.581434943690931],["▁zuurstof",-11.582483681403238],["liefde",-11.582712466797684],["cent",-11.58285878857471],["▁crisis",-11.58315077772114],["▁Weg",-11.583153556323143],["▁aanvaard",-11.583271984113006],["•",-11.583488843325268],["▁middags",-11.583682143363507],["▁Papa",-11.583881389170536],["▁Ons",-11.583915650649706],["▁zeil",-11.584109313063928],["▁stress",-11.584195127335462],["▁Kitt",-11.584458493554992],["internationale",-11.584670708239878],["glanzende",-11.584850001417],["▁overlijden",-11.585439267533197],["onopvallend",-11.585849972520451],["▁litteken",-11.585893197161772],["▁lessen",-11.586431149586463],["▁Taylor",-11.586736850248776],["troosten",-11.586889502696485],["▁kamertje",-11.58689238005807],["bestelde",-11.586910830700878],["▁agenda",-11.586930737508492],["▁Finn",-11.587320337989066],["overduidelijk",-11.587541352783331],["▁Britt",-11.587845534885382],["▁aanwijzing",-11.587985845137062],["▁explosie",-11.588442204000044],["▁Johannes",-11.588857359096554],["▁sokken",-11.588895369080284],["▁kok",-11.589201124357851],["▁romp",-11.589672781940315],["▁Pen",-11.590215214810422],["poort",-11.590262112150183],["ast",-11.590499996253396],["▁put",-11.590632191022458],["fluisterend",-11.590678014778668],["▁koffers",-11.590984592440224],["▁Meester",-11.591320968735625],["cul",-11.591388160797305],["tegen",-11.591713455638924],["▁Claudi",-11.591751077177182],["▁gebed",-11.591772419652022],["bla",-11.591775675231943],["emotionele",-11.591805114385618],["bevatten",-11.591982917392729],["resten",-11.592168407778358],["▁mini",-11.59239065605964],["▁beesten",-11.592401854675131],["bbe",-11.592564473334216],["▁beschikbaar",-11.592760345177153],["nnifer",-11.592919386564542],["▁overeenkomst",-11.593104720184698],["▁zielig",-11.593373213200053],["▁georganiseerd",-11.593430109021613],["storen",-11.593458236406011],["▁verwoest",-11.59400881877676],["▁Vera",-11.59413261681024],["▁Bur",-11.594198062363589],["uck",-11.594309318509032],["totale",-11.594574348961563],["wisselen",-11.594598458094302],["▁definitief",-11.594735755544786],["▁map",-11.59478686534156],["lic",-11.594813809396433],["▁doelwit",-11.594896055209963],["▁Von",-11.595163379503903],["▁Bro",-11.595188540366564],["▁zelfbeheersing",-11.595391051473808],["▁verricht",-11.595652705616583],["hulde",-11.59567455743078],["▁Tru",-11.59626228817634],["stameld",-11.596447629500544],["teeds",-11.5965529258574],["▁generatie",-11.596913163302055],["bezeten",-11.596935508542131],["voer",-11.597007520135296],["▁resultaten",-11.597058049487243],["Zelfs",-11.59724790663797],["▁status",-11.59762050260445],["▁muis",-11.597653191857354],["minste",-11.597977956798518],["▁droevig",-11.598010969593538],["▁scène",-11.598069132276429],["kalmeren",-11.598189421815931],["▁diensten",-11.598360203415382],["▁Greg",-11.59840915721039],["▁compliment",-11.598485157844342],["onderwerpen",-11.598831690017956],["▁handje",-11.599403754642513],["schermen",-11.59955855307623],["gele",-11.600553627960297],["▁Felix",-11.60072751657296],["▁zegen",-11.600954839032102],["▁Kee",-11.601055200059667],["▁justitie",-11.601069075849953],["alph",-11.601113826753137],["▁dienblad",-11.601313991929052],["avondeten",-11.601549209165707],["▁vergezel",-11.601771778738357],["▁linnen",-11.601966204560776],["spoor",-11.602389523482737],["zonen",-11.60239887610446],["▁Lea",-11.602478344322186],["▁heks",-11.602554380228977],["werp",-11.602895811391514],["spannend",-11.602922308955108],["Ra",-11.603018315861329],["▁late",-11.603181715834696],["▁geë",-11.603391741955695],["sters",-11.60357698424898],["▁gering",-11.604211499916222],["eiste",-11.604282052535794],["taal",-11.604292761698442],["klaagde",-11.60434453930037],["ertegen",-11.60476943654866],["can",-11.60477430444262],["algemen",-11.604830384693477],["▁meubels",-11.605117167954534],["beschrijven",-11.605359491036277],["onbewust",-11.60548430722651],["▁vlot",-11.6057529202433],["▁luik",-11.606457349761708],["par",-11.606720116069791],["▁Ry",-11.606799998042266],["▁geil",-11.606826964333024],["▁contacten",-11.60705699292176],["▁Cath",-11.607111762597484],["affaire",-11.607257481896156],["▁hielen",-11.60748869669627],["gratis",-11.607824504158344],["▁Henri",-11.607841763587668],["▁boosheid",-11.608072793178088],["▁ministerie",-11.608159422716671],["▁rijtje",-11.60816310127416],["Stel",-11.608253896597164],["▁nabijheid",-11.609195645128858],["▁duivels",-11.609650726312262],["verbeterd",-11.61069483365764],["▁frustratie",-11.61077026441222],["▁tekening",-11.613368470332803],["▁fabriek",-11.613448084457076],["luider",-11.613448662226691],["evin",-11.613522575548574],["▁microfoon",-11.613734981868776],["beloven",-11.61394908597424],["verhuizen",-11.614078197247258],["▁Chlo",-11.614154218210135],["nachtkastje",-11.614214323101638],["▁Lia",-11.614546259026186],["▁tiener",-11.614667366398397],["pro",-11.61510509612283],["hoek",-11.615143304037437],["▁Bay",-11.6153485507254],["▁sierlijk",-11.615638977001431],["gespierde",-11.615896707813972],["▁slappe",-11.615924163217777],["zinken",-11.616153114269908],["▁Far",-11.61643592184924],["▁bladzijde",-11.616556514611442],["▁Rond",-11.616592272500691],["Eerst",-11.61664056251902],["gedekt",-11.61679005092109],["▁tekort",-11.616806083941428],["eerden",-11.61691073720579],["▁bezet",-11.617144574131752],["wantrouwen",-11.617191986803096],["▁vrouwelijk",-11.617446714683744],["▁tepels",-11.617502517597783],["verstoppen",-11.617524392629656],["▁lelijke",-11.617767311117028],["clusief",-11.61777565404552],["▁krijgers",-11.61800231482976],["heimelijk",-11.618104414036502],["▁Star",-11.61813914250057],["Houd",-11.618300999306276],["▁herhal",-11.618526816241518],["▁Dam",-11.618641336939756],["▁Lena",-11.618641838308486],["▁inkt",-11.61870287725305],["muziek",-11.619198233085196],["▁vies",-11.619685662265002],["▁vallei",-11.620058327430264],["▁deels",-11.62028314127496],["brug",-11.620534056002864],["▁mompel",-11.62062592031043],["▁Margo",-11.620966931566336],["▁Lauren",-11.621010491040392],["confronteer",-11.621120206348309],["▁onderste",-11.621175938386],["▁lepel",-11.621216091398162],["▁voorwaarde",-11.621405231152208],["▁buit",-11.621660854566729],["▁kliniek",-11.621671618824962],["verzekeren",-11.621813410618431],["worstelde",-11.621966793199636],["prikte",-11.62197503182588],["groene",-11.622367304360194],["▁medewerkers",-11.622371007144595],["▁schilder",-11.62239388502563],["▁beer",-11.622616611625231],["naderen",-11.622685270975634],["buigen",-11.622931903090272],["anti",-11.623054099045982],["▁bladerde",-11.623522831727623],["▁kraan",-11.623572721632668],["▁willekeurig",-11.624172020641288],["▁Gij",-11.624339605032205],["▁onzekerheid",-11.624444451270543],["hoogtepunt",-11.624590246261011],["▁werking",-11.624662670624192],["gerukt",-11.62469159960601],["▁gekke",-11.624710681792578],["dus",-11.62473267988196],["▁Var",-11.625069643327867],["▁kilometers",-11.625112944463114],["wazig",-11.625187704014722],["leren",-11.62520781240564],["houder",-11.625486894705038],["▁mededeling",-11.625756972041366],["▁Mirand",-11.62594354729401],["▁Mij",-11.62595118025772],["▁Wacht",-11.62614170872501],["▁Jacque",-11.626272314583058],["vuur",-11.626336010138832],["leed",-11.626354019426133],["riepen",-11.626409624047607],["▁keukentafel",-11.62644708434781],["▁standaard",-11.626501511346191],["mannelijke",-11.626786260608078],["▁Hol",-11.62702107300404],["▁ernst",-11.627139058062564],["zitten",-11.62716737668558],["▁luidruchtig",-11.62728925381819],["▁DE",-11.627383959828409],["▁Stella",-11.62746050151012],["▁Wim",-11.62763676855513],["grid",-11.627760331866035],["▁barsten",-11.627766481663311],["inwendig",-11.627929327613586],["▁afleiding",-11.62797820084958],["▁reus",-11.628175400994031],["▁verbitter",-11.628734726568794],["poten",-11.628755698452435],["▁Poi",-11.62883706342402],["▁koets",-11.629357380823883],["gescheurd",-11.629623118231027],["daadwerkelijk",-11.629920920668171],["▁langzamer",-11.630243406820236],["gevat",-11.630263662392892],["▁kudde",-11.630267231804613],["▁rouw",-11.630862847603378],["▁wijsheid",-11.630956061756528],["▁fase",-11.631382422036516],["serieuze",-11.63142523070829],["▁House",-11.631553302731389],["▁Amerikaan",-11.631768896694489],["kla",-11.6319606114738],["▁verloofde",-11.632242762533158],["▁snelweg",-11.63330975536979],["reageerd",-11.633347306177782],["▁journalisten",-11.63338322819897],["leegte",-11.633612788584513],["Japans",-11.63372353174379],["luidde",-11.633795061542664],["trap",-11.633869344224674],["steviger",-11.633915513718769],["▁recherche",-11.634012581006267],["▁Whit",-11.634047969023204],["▁gerucht",-11.634247963172124],["▁rijkdom",-11.63440639557505],["afgeleid",-11.634524472702712],["sorry",-11.634536603918663],["óg",-11.63470364690914],["▁slordig",-11.6347039674308],["▁Kor",-11.634761858340095],["handelaar",-11.634887635900752],["gooit",-11.635287827549195],["geacht",-11.635437463143004],["▁confrontatie",-11.635438630056452],["vent",-11.635676717475036],["Pas",-11.635696577058628],["▁paspoort",-11.635729599607403],["▁Leon",-11.635743525757253],["▁Tara",-11.63595147191509],["Want",-11.63609298359344],["lokale",-11.636320180515716],["▁lette",-11.636506346589712],["kletsen",-11.637395530330014],["▁Oscar",-11.63741183564411],["startte",-11.637441602984552],["▁koppen",-11.637562421569394],["lus",-11.63774737540512],["plagen",-11.637850538871438],["▁Ted",-11.637869492858677],["vandaan",-11.63790087861625],["­de",-11.638092016521314],["▁Fin",-11.638198456115733],["▁bijeenkomst",-11.638224685162822],["▁ver­",-11.638259024165208],["opzettelijk",-11.638322621480292],["plein",-11.638348141246311],["▁Ker",-11.638452899319052],["▁Mara",-11.638475312263754],["steunen",-11.638598171163816],["▁Road",-11.638764153654083],["verstoord",-11.638985338760818],["beslissingen",-11.639118350948133],["▁jack",-11.639225831730135],["▁Hand",-11.639498598732294],["rian",-11.639945402215304],["▁Zaken",-11.640160659371777],["zakelijke",-11.640246566934838],["▁relaties",-11.640703550519632],["▁genegenheid",-11.640947410656858],["▁noord",-11.641898322148789],["▁prijzen",-11.641934661537366],["cht",-11.642320274711146],["▁voorzitter",-11.642695774204189],["▁gedicht",-11.64336273573141],["Phoeb",-11.643453655135854],["dwaalde",-11.643643568263789],["▁Melan",-11.643949302579196],["▁duik",-11.644132965622113],["▁leert",-11.64456996519989],["▁ontvoerd",-11.64464844830146],["Rusti",-11.644879849426763],["gekust",-11.645787127459204],["exemplaar",-11.64598662431598],["▁omhelzing",-11.646314099710072],["▁Biggles",-11.646433777130888],["▁Gray",-11.64644603849445],["▁trad",-11.646666987590953],["▁smeek",-11.64744678007702],["▁hoofdstad",-11.647506499467928],["▁Bos",-11.647526531712575],["ssie",-11.64800625931948],["▁vorst",-11.648090142372284],["▁volgend",-11.648193668539609],["want",-11.64833737540131],["▁mal",-11.648833939015049],["▁Stone",-11.64889371971805],["steken",-11.648969267721064],["▁altaar",-11.649071449344488],["▁Slo",-11.649373141965892],["▁Wit",-11.650404760356924],["▁Quinn",-11.650641990060947],["▁Eerste",-11.650915663819442],["wierp",-11.651514189841487],["ngeveer",-11.651701343199342],["▁Rijk",-11.651704565755162],["▁behoor",-11.651811430449166],["▁Mei",-11.652207447740462],["test",-11.65239213341168],["▁Hoofd",-11.652446072044777],["▁vleugel",-11.652531123797615],["biertje",-11.652640213787851],["▁bakken",-11.652712826378986],["▁trottoir",-11.653266789253088],["waagde",-11.65330315819105],["▁Valeri",-11.653349500164635],["▁enkels",-11.65413578090006],["▁handschrift",-11.65417608456263],["▁waanzin",-11.654310340804791],["broken",-11.654382883068946],["▁bizar",-11.65455383547677],["houding",-11.654916781610131],["▁neger",-11.655023537557216],["▁vertrouwelijk",-11.655193169588587],["▁advocaten",-11.65521357278941],["▁overheid",-11.655292278084463],["▁Gwen",-11.65538115743024],["▁vergelijking",-11.65592520397033],["stinctief",-11.656449455033904],["▁fractie",-11.656923700332465],["hard",-11.656962884992785],["slingerde",-11.65721714703758],["▁parfum",-11.657274893310673],["▁wi",-11.65740566671257],["kon",-11.657478278738033],["wacht",-11.657571912436335],["vleugel",-11.658508562921613],["rekken",-11.658786698201306],["▁plots",-11.658961568564097],["▁Bernard",-11.659454397801811],["kalmte",-11.659583566836812],["kwade",-11.659620707629744],["Stop",-11.659735727736113],["vergelijken",-11.659908009578109],["▁Petra",-11.659991481131394],["uitzien",-11.66014422278956],["▁Iren",-11.660199434161816],["▁oppervlakkig",-11.660816576477782],["gewaad",-11.661145217879035],["beroemde",-11.661226156141604],["▁Dokter",-11.661353262582406],["▁Kerstmis",-11.661497842092968],["▁klassieke",-11.661862144499018],["sluiting",-11.662239984800731],["▁Fion",-11.662432195908536],["groef",-11.662508840207591],["▁ras",-11.6627467662224],["▁huiskamer",-11.662762354975362],["▁Yo",-11.663059421352106],["▁vest",-11.663341624550432],["kerk",-11.663472328162449],["▁vluchtte",-11.663540873688772],["usteloos",-11.6637670766457],["▁moeras",-11.664019624609876],["▁pensioen",-11.664302826642956],["bureau",-11.6647004612107],["tic",-11.665144840108868],["▁lievelings",-11.665160562139276],["nmiddellijk",-11.665308787657109],["▁Kleine",-11.665384471338358],["▁maatschappelijk",-11.665534001872876],["▁techniek",-11.665821122246166],["snikken",-11.666191680682],["verzekerd",-11.666201275738596],["▁beurs",-11.666223226170183],["▁Blake",-11.6662269059639],["▁vooraf",-11.666421169682067],["roze",-11.666484431359963],["▁communicatie",-11.666593457050451],["▁afval",-11.666832026553967],["▁kloof",-11.666861540198614],["anse",-11.66692475528918],["▁Bobb",-11.666976097807035],["▁Colin",-11.667057941044249],["▁gewelddadig",-11.667099978392136],["▁voorbereiding",-11.667309184838228],["gesleept",-11.6674154437206],["▁Agnes",-11.667692038516218],["arts",-11.667946086141642],["verlaat",-11.6680476664178],["bevend",-11.668084170477854],["▁Wees",-11.66817801128454],["erland",-11.668185600003149],["▁koepel",-11.668304992990416],["schrift",-11.668466375482224],["drie",-11.66883314050826],["buigt",-11.669019860167444],["▁voorjaar",-11.669061758520153],["moedig",-11.669122379517374],["▁Nieuwe",-11.669471880052136],["schilderen",-11.66953124326438],["▁Ford",-11.66960388416944],["zoekend",-11.669608455123328],["trekt",-11.670309900333548],["▁bedreiging",-11.67067083587994],["▁sind",-11.670714187987748],["▁Jonas",-11.670781994275767],["▁fort",-11.671179144566675],["Eén",-11.67133916848294],["▁stelletje",-11.671397312210807],["▁rolstoel",-11.671731318005785],["duwt",-11.671787708714476],["verdoofd",-11.671793313728813],["▁Samuel",-11.671831425293751],["tuin",-11.67193840680864],["▁Poll",-11.672208606787375],["▁Conno",-11.67224231257712],["▁groeten",-11.672392966683262],["naamste",-11.672721094985086],["▁intuïtie",-11.672902079034214],["▁toonbank",-11.673102362232052],["erden",-11.674062762791136],["wij",-11.674291111655196],["▁verklaar",-11.67457614608202],["▁Cre",-11.674780249935342],["afwachten",-11.674982252507473],["▁voldoening",-11.675248155678576],["▁nationale",-11.675559599585792],["▁peper",-11.67562180224517],["orde",-11.675820314143996],["▁Terug",-11.676178705189992],["▁druppel",-11.67617937084882],["leer",-11.6762136257841],["▁Jasper",-11.676371015407524],["Gaan",-11.676381573290264],["▁Jill",-11.676392124370922],["nodigde",-11.677302709834056],["▁boten",-11.677466603580578],["graag",-11.677897335446032],["▁Gret",-11.678380097904792],["▁wonderlijk",-11.678554240518356],["▁beleven",-11.678648488724814],["koperen",-11.678702595891451],["▁Grant",-11.67875550248115],["▁bestuur",-11.678965797887788],["▁partijen",-11.679013386869126],["▁Stan",-11.679036978163348],["eigenschappen",-11.67906559102556],["stok",-11.679241893558208],["snapte",-11.679701260034056],["bewusteloos",-11.679783161172455],["▁belasting",-11.679983487911898],["▁zeilen",-11.680193669183032],["geplakt",-11.680436617326324],["▁ongelijk",-11.680574835104633],["renlang",-11.6806680218883],["tuig",-11.680926481506855],["▁som",-11.681048228411544],["▁beloning",-11.681157252080078],["▁parkeerterrein",-11.681627026859102],["▁won",-11.681796710669676],["▁gebeden",-11.682377739651184],["▁show",-11.68245727612274],["opstaan",-11.682464517397788],["hol",-11.682672921541467],["rich",-11.68278652806861],["▁complete",-11.6828912875219],["olie",-11.68301134745779],["madame",-11.683193315763914],["ill",-11.683355857466076],["▁teug",-11.68336889353243],["▁voorop",-11.68365265057048],["dracht",-11.683844571448324],["ssel",-11.683846777318294],["▁City",-11.68408726726442],["▁schrap",-11.684368512533482],["▁Amber",-11.684379393312913],["aanzienlijk",-11.68451148512687],["toren",-11.68453294618626],["▁Mad",-11.684599239116116],["▁verwelkom",-11.685017153762283],["Haar",-11.685343673750516],["veroorzaken",-11.68565054739885],["▁Hay",-11.685939203355863],["▁eetkamer",-11.685959711968405],["aldus",-11.68600447250389],["▁verhoor",-11.68618534292206],["bonsde",-11.68635466552782],["jarig",-11.686400820848098],["▁gebaren",-11.686415611493576],["▁qua",-11.686608294689576],["bot",-11.687020571129109],["▁grof",-11.687030895018166],["▁verschillen",-11.687170425330434],["▁laboratorium",-11.687203660701336],["▁Diep",-11.687914727147184],["rilling",-11.688274367037746],["▁slaaf",-11.68850270321419],["▁Nieuw",-11.688531083718829],["Sterke",-11.688605022698214],["▁griezelig",-11.688655345688105],["krabbelde",-11.688849404236173],["zuidelijke",-11.688912683905071],["▁jaloezie",-11.689287567824564],["▁diamanten",-11.68944856339242],["▁klus",-11.689586413563813],["▁gunst",-11.689773713106694],["marmeren",-11.689883250654702],["▁Mur",-11.689968992017494],["▁gouverneur",-11.689973683700757],["day",-11.690081008664889],["harige",-11.690564289281692],["gemeten",-11.690692446032555],["kistje",-11.69149237563354],["▁spook",-11.691889388300906],["▁kook",-11.692276238002966],["▁springt",-11.692296731391508],["▁Clara",-11.692463125564853],["beschadigd",-11.692702804578316],["tafereel",-11.692757728404668],["udith",-11.693172762505846],["grootte",-11.693406724753544],["steunde",-11.693526228619447],["▁Strak",-11.69354230994834],["spr",-11.693708292465104],["Veel",-11.693758523511637],["▁volwassenen",-11.694066401189335],["▁Row",-11.6941812104361],["kansen",-11.69474675179844],["bestaande",-11.695077921958797],["▁von",-11.695433237732605],["flarden",-11.695457075313254],["▁onaangenaam",-11.695929388827029],["▁seizoen",-11.696082444829694],["▁Dood",-11.69608990110734],["verbazen",-11.696598898891436],["riep",-11.696734849042858],["▁Sh",-11.6969226835945],["▁vijandig",-11.696970261013677],["▁draken",-11.69715194582188],["vatte",-11.697284910217508],["▁vieze",-11.697502023344144],["▁Bent",-11.697646750608966],["Madam",-11.69782193308176],["▁Anthon",-11.69832486111908],["▁vlek",-11.699284474905962],["óf",-11.69932807506548],["Gucky",-11.699415403028798],["gekweld",-11.699717935758173],["glas",-11.699810718268049],["▁grimas",-11.700394441122608],["einde",-11.700683651672207],["▁negentig",-11.700778157901292],["verhaal",-11.70091637009218],["bezitten",-11.70097918480557],["elkander",-11.701066977919238],["uitvoeren",-11.70110800385267],["sprong",-11.701139685955113],["yle",-11.701402517434053],["▁Rosi",-11.701474244058664],["kijkt",-11.701796934900049],["volk",-11.702356264569312],["terrein",-11.702362291687804],["nachtelijke",-11.702538442907157],["▁hamer",-11.702644425101504],["▁kanker",-11.702993924706997],["▁verlegenheid",-11.70308210794556],["wijgend",-11.703800599327357],["▁juwelen",-11.703903968811474],["lief",-11.703998014748564],["lam",-11.704123683348],["▁actief",-11.70418430046867],["onnie",-11.704193175322304],["▁Water",-11.704224389054492],["▁Fe",-11.704255052059054],["▁Esthe",-11.704527949642603],["▁slechter",-11.705018864496452],["wimpers",-11.70567460387632],["▁geuren",-11.705814308985484],["▁Camill",-11.706308802115686],["straffen",-11.706339529688872],["▁naald",-11.707001610888724],["▁herhaal",-11.707029759533048],["gelden",-11.707450864905937],["wal",-11.707825669377865],["▁eigendom",-11.708071121487768],["omtrent",-11.70817396363337],["vallende",-11.708288240073998],["▁kut",-11.708666928805224],["▁traan",-11.708756230168028],["soluut",-11.709043731937856],["▁nadruk",-11.709443402849333],["▁begeleid",-11.709662570097096],["▁Guy",-11.709956666952126],["▁heilig",-11.710060460393304],["▁stellig",-11.710209287768528],["▁koor",-11.710901550779196],["▁ongeloof",-11.711019604344472],["bereiden",-11.71144927193307],["Natali",-11.71153864645762],["▁Bol",-11.71218515033469],["▁vrijwillig",-11.712220859221672],["▁Sar",-11.712309849878135],["behoren",-11.71242770311093],["schoof",-11.7125067264735],["mina",-11.712569403781366],["▁technisch",-11.712627193042968],["kraakte",-11.71269366594384],["▁Gal",-11.712917738901549],["▁sigaar",-11.713061769646783],["▁vermeld",-11.713194513822096],["geklede",-11.71348566366534],["aris",-11.71376167007828],["troffen",-11.714076174280985],["▁stier",-11.714235231842531],["owies",-11.71424281704406],["▁Ly",-11.714931329967728],["sarcastisch",-11.714937709292723],["keerden",-11.71494450246844],["vermengd",-11.715245219658131],["▁literatuur",-11.715389784401784],["▁ploeg",-11.715652428442176],["▁lig",-11.71610912768532],["zyn",-11.716449439079394],["pul",-11.7165935589502],["stokt",-11.716691628194456],["▁Sandra",-11.716741763671656],["Sch",-11.716913911488506],["▁Marin",-11.71693201991268],["▁baai",-11.716951085746263],["▁Free",-11.7171676851639],["Dennis",-11.717251611442652],["ppen",-11.717362018541024],["▁Pitt",-11.717421681871198],["gebaar",-11.717516900882258],["▁Jud",-11.717642632902235],["blauw",-11.717654554887645],["verbazingwekkend",-11.717707670820504],["▁Hy",-11.717820827575984],["klikte",-11.717851053968973],["ER",-11.717925363733787],["ness",-11.718081604716089],["▁vertrekt",-11.71819614669329],["waarde",-11.718556461337796],["zoontje",-11.71895914557878],["breder",-11.719233964324742],["▁lantaarn",-11.71999927240084],["lopig",-11.72007800410898],["▁louter",-11.72009876799798],["▁Sen",-11.720656732977757],["▁bezoeker",-11.720717620302844],["more",-11.720727258978249],["verwachtingen",-11.720979938427009],["benadruk",-11.721113331039463],["▁Can",-11.721225429993122],["▁Gerard",-11.721308097775143],["beweegt",-11.721340396801272],["tikje",-11.721926661287888],["voelde",-11.722050840012187],["▁Qua",-11.72300757254477],["▁Mano",-11.723067589800555],["achteloos",-11.723329835257388],["▁zonnebril",-11.723371109417664],["vervallen",-11.723392474809453],["bedreigd",-11.72384742839073],["▁beton",-11.724039335705513],["dreven",-11.724350605627803],["▁Mercedes",-11.72480708051143],["rust",-11.7251737625236],["▁Zorg",-11.72546431946978],["zachter",-11.725941201252912],["weten",-11.726074699628253],["▁Hoor",-11.72613361014454],["▁Bron",-11.726297102676016],["agent",-11.726376283775355],["▁absurd",-11.726515338069088],["moeder",-11.726739791032356],["▁rechercheurs",-11.726955903695494],["▁vruchten",-11.727132942732668],["▁pillen",-11.727143214797112],["bevestigen",-11.727453342594911],["André",-11.727808402007788],["▁transport",-11.728041594553613],["▁offer",-11.728050586737666],["▁Ban",-11.728430081280187],["▁strikt",-11.728536411677666],["station",-11.728741633676355],["▁jongeren",-11.72918999193972],["▁car",-11.729286753613744],["randen",-11.729395438155043],["▁zielen",-11.7295761048692],["▁machines",-11.729714417950774],["rus",-11.729976222146194],["▁japon",-11.73041106980362],["schitterde",-11.73062475866078],["▁drama",-11.730757548796737],["▁Lars",-11.730850427224404],["icht",-11.730916960693513],["▁steiger",-11.731108725805951],["▁Ster",-11.731237646885177],["▁cognac",-11.73219350134448],["minachtend",-11.732278616721215],["geboden",-11.732341041572512],["Gewoon",-11.732521412919905],["bezaaid",-11.732604143497529],["▁geestelijk",-11.732880416858723],["▁holle",-11.732888056429736],["overweldigend",-11.733262740803411],["ingang",-11.733493102756292],["▁Dunc",-11.733841979977592],["▁Bosch",-11.734184810528948],["kleed",-11.734357514896365],["dreigende",-11.734444584342317],["teruggetrokken",-11.734489169180202],["▁front",-11.73497774142452],["▁Cro",-11.735060505184792],["▁interessante",-11.735263209003888],["klommen",-11.735421529557849],["overtuigend",-11.73580460054065],["▁gew",-11.736216618553843],["▁letter",-11.736549990271929],["▁vijver",-11.736811592818915],["▁bries",-11.736990584184],["▁geconcentreerd",-11.736996640356269],["▁chocolade",-11.737220382512373],["▁goot",-11.73725110593554],["▁onderuit",-11.737257534505892],["belle",-11.737364986157091],["▁Bond",-11.737645286879845],["▁joden",-11.73764856122076],["schoten",-11.737902969697249],["▁Geloof",-11.7380748667159],["▁ratten",-11.738124989663588],["verre",-11.73876320059384],["▁universum",-11.738828133317144],["▁serveerster",-11.739693770452863],["wond",-11.739747537701918],["▁Mand",-11.739955886985896],["Goeie",-11.739993391770664],["▁gede",-11.74003306061534],["▁kruk",-11.740220067888146],["▁Mannen",-11.740224805091769],["▁Pol",-11.740342644427734],["▁vertoon",-11.740506940424352],["omme",-11.740691108916945],["verzorgd",-11.74082193946608],["▁schemering",-11.740832896989955],["▁document",-11.740918590405688],["▁buitenwereld",-11.74122637710076],["Niks",-11.741545725843732],["▁reling",-11.741598377741076],["▁moedig",-11.741928348569944],["geur",-11.742061824347626],["rookte",-11.742101451972422],["bedroefd",-11.742238276403636],["▁optie",-11.742505868194405],["uch",-11.742711305320976],["punten",-11.742798929583618],["luiken",-11.74280338968767],["▁ontzag",-11.742885284616658],["gebrand",-11.74292659436566],["▁onderhoud",-11.74318226798011],["rton",-11.743192654642584],["▁Kenn",-11.743198256605297],["overwogen",-11.743199330080344],["▁onrecht",-11.743295678618594],["ico",-11.74331295324844],["▁incident",-11.743534511652443],["fluisteren",-11.743959422556664],["aangewezen",-11.74422514848007],["mens",-11.744249579364944],["▁Let",-11.744358592516836],["▁reken",-11.7444367303105],["▁Wist",-11.744529742493013],["prent",-11.744594625450086],["stapje",-11.744648880357625],["▁wrak",-11.744837723996335],["Klop",-11.744922019350096],["echtpaar",-11.745045599191238],["▁Ex",-11.745313878328906],["▁praatje",-11.745401195526068],["▁instrumenten",-11.74542815872839],["economische",-11.745545135678473],["▁Ari",-11.745564545595848],["▁vecht",-11.745740965417896],["stervende",-11.745780715808625],["▁Pri",-11.745846111626388],["▁illusie",-11.745960604934677],["▁spits",-11.7461594483883],["Mij",-11.746492513744275],["drogen",-11.7466835083866],["aak",-11.746778112110752],["▁baron",-11.746942201376424],["▁verdwijning",-11.74750714367656],["aanvaarden",-11.747550815241675],["▁positief",-11.747589253747458],["▁Evan",-11.747963754817478],["▁Rit",-11.747966185516086],["Nicole",-11.748048876856448],["▁vlag",-11.7483003831154],["schrokken",-11.749080503482816],["▁fortuin",-11.749142045434542],["verwijderen",-11.749895156396288],["tuitte",-11.750258580574508],["▁wielen",-11.750428739602848],
[...]
